#version: 0.2
Ġ t
Ġ a
i n
h e
r e
ï ¼
ä ¸
o n
a t
ç ļ
çļ Ħ
ï¼ Į
Ġ s
Ġ c
n d
ã Ģ
e r
Ġt he
e s
e n
o r
a n
Ġa nd
in g
Ġ p
i t
a l
ãĢ Ĥ
Ġ o
Ġ w
ä »
Ġt o
i s
o u
Ġ m
ä º
Ġ in
Ġ f
Ġ b
e d
i on
å ı
i c
Ġ d
Ġo f
l e
a r
r o
Ġ Ġ
å ħ
en t
æ ľ
Ġ e
å Ĵ
è ¿
ä ½
åĴ Į
æ Ī
å ®
å Ī
v e
u s
Ġ re
Ġ h
Ġt h
a s
c t
ç Ķ
o m
å ľ
å ¤
æ ĺ
å Ĭ
å Ĳ
ä¸ Ģ
i m
è ¯
æ ĸ
at ion
l o
ç »
Ġb e
ãĢ ģ
i d
Ġc an
i l
æĺ ¯
ä ¹
è ®
Ġ A
Ġth at
Ġ T
ä» ¥
c h
Ġ y
c e
ï¼ ļ
o t
er s
Ġ n
é Ģ
r a
å °
Ġ g
Ġy ou
å Ń
Ġp ro
e t
å º
åľ ¨
l y
Ġ is
ä¸ ª
Ġ l
u r
Ġf or
åı ¯
é ĩ
s t
çļĦ æ
u t
Ġ he
i f
ĥ ½
ä ¼
Ġ I
è ¡
i r
it h
å ¹
Ġa re
i g
Ġs t
e l
o l
å ¸
u l
æ Ŀ
æĪ ĳ
Ġ on
è ¦
æľ ī
æ Ĺ
å ¯
è §
è¦ ģ
Ġ us
a y
æ ķ
ç ī
o w
m ent
çĶ ¨
es s
ä¸ Ń
ä» ¬
äº º
å ĩ
Ġe x
ĠĠ ĠĠ
å Ľ
å Į
å ¼
Ġc on
s e
è ĥ½
ç İ
Ġa n
Ġw ith
ä¸ º
at e
i v
a m
Ġa s
u re
è¿ Ļ
å Ĩ
ç Ń
Ġ or
å ·
Ġa l
i es
ç §
Ġ im
æ Ģ
v er
a b
äº Ĩ
Ġs u
Ġd e
g e
t h
åı¯ ä»¥
è Ģ
ä¸ į
å ¾
ĠA I
Ġ en
é Ĺ
æ ī
a k
i ve
Ġm o
å ¥
é Ŀ
ç Ľ
it y
ä ¿
u n
è ´
å į
Ġ it
Ġim p
e ct
æ ł
å ½
è ĩ
é ¢
å ĵ
æ ³
or t
a d
æ ŀ
e m
Ġc om
å ¦
he r
e re
Ġ S
i al
Ġ C
ĠT he
ç Ĳ
çĶ Ł
æ Ħ
p p
æ Ń
æĸ ¹
q u
Ġw h
å¦ Ĥ
é ľ
an t
Ġ le
Ġ v
æ ĭ
æ Ĭ
us t
æĹ ¶
çŃ ī
å ĳ
å¯ ¹
t er
l d
è¡ Į
Ġc h
u d
éľ Ģ
æ °
æĪ Ĳ
Ġ |
a c
a in
i z
æ ı
ion s
Ġh a
æ Ľ
- -
æĿ ¥
om e
å ¿
' s
Ġn e
es t
ä ¾
u m
åĪ °
åľ °
is t
â Ģ
çī ©
ä¸Ģ ä¸ª
l p
æ İ
èĩ ª
Ġhe lp
Ġthe ir
æ Ķ
ä½ ľ
ä¼ ļ
æ Į
æĪĳ ä»¬
n t
äº İ
åĪ Ĩ
re s
p e
åĩ º
id e
æ ĥ
Ġ H
è ¾
Ġ M
f f
æ ¯
o d
ic al
Ġw or
ä¸ Ĭ
a re
æĽ ´
Ġyou r
ä¸ ĭ
è µ
ation s
æķ °
Ġt e
å İ
çĲ Ĩ
ĠT h
è¿ ĩ
å¹ ¶
d u
éĿ ¢
Ġa d
il l
æ µ
å¥ ½
o c
a ct
éľĢ è¦ģ
ä» ĸ
å ±
Ġ r
Ġmo re
åŃ ¦
ç ®
ig h
äº Ľ
Ġ B
åĬ ¨
åĵ ģ
è ī
p le
Ġin c
åĲ Į
Ġex p
ou ld
ä½ ł
æ į
æı Ĳ
å¤ §
çİ °
p t
Ġ P
al l
åĬ ł
ç§ į
Ġs e
åĬ Ľ
ou t
Ġha ve
ç º
ä½ ĵ
Ġpro v
åĮ ĸ
å¤ ļ
å® ļ
Ġus ed
éĢ ļ
c c
è¿ Ľ
æ ´
Ġs h
Ġa b
o s
Ġre s
ĠTh is
ç ¨
æĢ §
a ge
r i
æ ¸
ab le
åŃ Ĳ
Ġb y
åı ĳ
éĩ ı
åº Ķ
Ġ lo
ä½ ¿
åħ ¶
é «
é Ļ
é« ĺ
åº ¦
è§ £
é £
å° Ĩ
æ³ ķ
a nd
ä¿ Ŀ
an s
f or
ro m
re at
Ġp l
çļĦ ç
å¸ ¸
è ½
Ġw e
è¡ ¨
ak e
æĪ ĸ
é¢ ĺ
å Ł
Ġm e
æĸ ĩ
t her
k e
å® ¶
åĲ Ī
æľ Ģ
in e
Ġs ome
ç ±
éĩ į
æŀ ľ
Ġ W
Ġ E
é ĺ
ou r
r ou
ç Ĥ
æ ±
åħ ³
Ġin t
an ce
ä¹ Ł
é ģ
ĠĠ Ġ
å® ĥ
a g
æ ¬
0 0
è °
ul t
y st
éĹ ´
ç ³
Ġt r
p l
ar t
æĦ Ł
æ Ĥ
at a
Ġ F
for m
è® ¡
Ġf rom
Ġ D
éĹ ®
igh t
c es
æį ®
lo p
ä¹ ĭ
Ġf e
å ģ
ve lop
Ġ 1
åĽ ł
k s
æ ²
Ġ u
å° ı
yst em
Ġd is
Ġ R
g y
å· ¥
ç¨ ĭ
å ¢
en ce
è Ĥ
ç ¡
Ġt ra
å »
åħ ¥
ig n
al th
Ġsu ch
a ch
æ Ļ
ar n
Ġd ata
è ¶
å® ŀ
s o
Ġde velop
ç ¤
Ġa cc
as t
èĢ Į
Ġ "
Ġo ther
å» º
Ġe ff
ç «
Ġm an
åħ ¬
å Ģ
ç Ħ
m s
å¼ ı
èī ²
å¾ Ĺ
if ic
Ġ j
Ġ ro
Ġh as
ch n
o lo
åĪ ¶
è Ĭ
ä½¿ çĶ¨
ou s
u al
Ġa t
Ġe m
el l
Ġs ystem
Ġhe alth
it ies
Ġex am
i b
é Ķ
Ġab out
äº §
åĲ İ
æĦ ı
ç± »
Ġp re
æĤ ¨
Ġal so
ent s
Ġin d
in d
éĢ Ĥ
Ġte chn
res s
æĥ ħ
éĹ® é¢ĺ
Ġus e
ï¼ Ł
Ġinc l
Ġs pe
ic h
p s
æľ º
Ġthe y
i e
Ġh ow
Ġwor k
ä¸ ļ
ç ´
Ġimp ro
Ġle arn
æĸ °
çĤ ¹
Ġcon t
ar d
çĦ ¶
æľ ¬
ç³ »
ç¡ ®
è® ¾
åħ ·
éĢ ī
èĢ ħ
é ħ
g h
_ _
Ġn ot
ç ľ
çĽ ¸
Ġprov ide
å ī
ion al
Ġen s
ä¸ İ
è´ ¨
ent ial
ç» ı
å¿ ĥ
an g
æŃ ¤
e nd
Ġp o
è¿Ľ è¡Į
ic e
Ġ -
Ġw ay
å· ±
Ġ 2
im e
ç ½
èĩª å·±
Ġ un
b ot
Ġincl ud
at ed
æ° ´
é ķ
æĮ ģ
ä» £
é ¡
æī Ģ
ç Ŀ
pp ort
o od
i ke
r u
Ġcom m
Ġ L
ä¿ ¡
Ġ G
ç Ł
çĶ µ
Ġw as
lo w
er v
åĮ ħ
ĠĠĠĠ ĠĠĠĠ
Ġw he
d it
Ġwh ich
Ġcom p
é ª
o re
ç ¾
Ġ =
çī ¹
if f
er t
æ ģ
r it
Ġre c
åĨ ħ
æĺ İ
or s
Ġp at
-- --
æ Ł
Ġa pp
n s
åĬ ¡
al y
a ce
æ´ »
ä¾ Ľ
a v
ä¸ »
Ġp ers
ç ĥ
è¯ ¥
Ġm y
ç ©
er i
è® ©
æĬ Ģ
éķ ¿
ac k
Ġ N
Ġd iff
Ġth is
å Ŀ
Ġens ure
å½ ĵ
Ġo ut
Ġc l
Ġ k
é ¦
ou nt
çİ ¯
åĬ ©
Ġtechn olo
Ġthe se
f ul
é ļ
æ ·
ä¸Ģ äºĽ
Ġs oc
å¼ Ģ
å¤ ©
Ġe v
Ġre du
Ġthe m
Ġ (
é ĥ½
æĪ ·
è ·
åľ º
æ° Ķ
Ġ Y
è¯ Ń
éĢļ è¿ĩ
å± ķ
Ġc o
å½ ±
ç ¬
Ġan aly
æ¯ Ķ
åħ ¨
Ġimpro ve
ç» ĵ
å¹ ´
ç ķ
çĿ Ģ
Ġh um
Ġ qu
ç® Ĺ
Ġ O
é£ Ł
il ity
Ġsystem s
åı ĺ
a il
ç ¼
ç ł
è¿Ļ ä¸ª
æıĲ ä¾Ľ
as e
å ŀ
ment s
Ġp ot
Ġan y
ä½ Ĩ
Ġcon s
ĠI t
æł ¼
Ġa r
æľ ¯
éĿ ŀ
Ġd o
Ġm ay
æĭ ©
u e
éĢī æĭ©
r y
é ĥ
Ġl ike
on g
è ģ
` `
i le
æ± Ĥ
Ġne w
i ent
Ġimp act
è¿ ĺ
æ³ ¨
ä¹ Ī
çĽ ®
âĢ ľ
âĢ Ŀ
e f
ä¾ ĭ
Ġpot ential
o k
åı¯ èĥ½
Ġtr ans
Ġa ct
ï¼ ī
Ġspe c
æ ¶
Ġw ill
äº ¤
iz e
ç¾ İ
å¸ Ĥ
Ġst ud
p on
è º
ä¸į åĲĮ
on e
å¾ Ī
åı Ĭ
å¦Ĥ æŀľ
çĲ ĥ
an ge
Ġne ed
å¤ ĸ
et y
ak ing
è¯ ·
at er
Ġpers on
id ent
Ġs o
Ġm ake
å¹ ³
å¤ Ł
èº «
ï¼ Ī
Ġin form
æ ¡
äº ĭ
åı Ĺ
as ed
il d
Ġof f
Ġthe re
c is
è ¢
éĥ ¨
æ¯ ı
ra ct
as s
Ġlearn ing
å ĸ
å½ ¢
i re
ä» İ
bot s
è Ļ
å¸ ®
Ġd es
ĠI n
c ess
Ġp e
if y
Ġwh o
ä¹ ł
æľ Ł
Ġexp eri
é Ĥ
Ġs c
e p
ä½ ķ
Ġt ime
éĿŀ å¸¸
æĭ ¬
å ķ
ä»¥ ä¸ĭ
éģ ĵ
Ġcomm un
Ġc ould
a p
è Ĳ
è° ĥ
l ic
du ct
Ġit s
c y
è¯ ´
Ġm ed
Ġc ol
ul ar
éĩį è¦ģ
Ġs p
åĪ ©
èµ ·
Ġprov id
ic es
å Ļ
æĸ Ļ
Ġimp ort
ur al
åŃ Ĺ
Ġu nd
in t
Ġo ver
åı ¸
æł ¹
é ¥
pl es
ä»ĸ ä»¬
g ra
ur ing
n ow
åį ķ
è¿Ļ äºĽ
åī į
å® ī
Ġp r
åĮħ æĭ¬
ç» Ļ
T he
ä½ į
å §
ç´ ł
åĳ ĺ
Ġ ident
åŀ ĭ
Ġad d
å¼ º
æĺ¯ ä¸Ģ
i p
g or
Ġsu pport
n e
Ġdiff ere
åħ ĥ
Ġas s
åĨ ³
é Ľ
åĲ į
Ġg o
Ġtechnolo gy
æĢ »
è® ®
Ġin ter
Ġin v
Ġo ur
æķ Ī
ust om
Ġre l
if e
åĻ ¨
ing s
ä» ·
Ġp art
è¢ «
æī ĭ
ar y
Ġres pon
Ċ ĠĠĠ
å¥½ çļĦ
at ive
å¸® åĬ©
ç» Ł
æĶ ¾
ĠH ere
ç ģ
Ġb ut
æģ ¯
æŃ £
ar k
åħ¬ åı¸
or y
å¢ ĥ
le ct
é Ł
æĥ ³
é£ İ
at ing
Ġa m
it s
æ »
gor ith
åĵ į
ure s
Ġeff ect
Ġsh ould
Ġp er
è ±
ç ²
ic t
Ġal gorith
u c
rou gh
ä» »
ä» ¶
Ġbe t
i a
Ġanaly z
æł¹ æį®
iz ed
æµ ģ
è§ Ĥ
è £
æł ĩ
ir on
Ġc ustom
Ġre g
Ġperson al
èĥ½ å¤Ł
ic s
iv id
ç Ī
èµ Ħ
æŃ ¥
å® ¹
åĪ Ľ
è Ī
ä¹ Ĳ
å¯ ¼
g an
èĬ Ĥ
Ġal l
en s
am e
n ess
Ġu p
Ġ U
èĢ ĥ
el f
åĢ ¼
å° ĳ
æľ į
ar i
th ical
v iron
è ĥ
or d
Ġs ign
éĩ Į
ou nd
o ple
åŁ º
Ġinform ation
Ġident ify
åĽ ŀ
Ġc re
éŁ ³
ib le
u b
è¿ Ĳ
Ġle ad
æ¸ ¸
æ¬ ¡
åĨ Ļ
éĤ £
g et
è į
Ġexam ple
ä¼ ĺ
å½± åĵį
is h
x t
æ º
éª Į
o b
å® ¢
å¤ ĩ
åģ ¥
è½ ¦
ç¤ ¾
ivid ual
ere d
l es
Ġen viron
Ġpe ople
æĺ Ł
ç ĸ
ç ĭ
Ġd et
æĹ ł
Ġ if
o se
it e
å¢ ŀ
é Ĵ
åĲĮ æĹ¶
è¿ °
æĸ¹ å¼ı
åĽ ½
é »
å¤ Ħ
Ġexam ples
æ ®
Ġint o
æĮ ĩ
Ġhum an
åĲ ĳ
ç¤ º
æķ° æį®
Ġ 3
Ġ J
è ı
çİ¯ å¢ĥ
al s
ers t
Ġe thical
ç» Ħ
ä¼ ł
Ġdiffere nt
Ġk now
åº ı
Ġind ividual
æıĲ é«ĺ
rou nd
å° ±
åı ĸ
åŃ ĺ
ä¸ ¤
çŁ ¥
our ces
c k
å £
in es
è¾ ¾
Ġman y
æķ ´
æł ·
dit ional
om m
çĶ ±
éĢ ł
å®ĥ ä»¬
u es
Ġm ent
Ġimport ant
Ġo pt
Ġlo c
p h
Ġpro cess
Ġalgorith ms
è®¾ è®¡
Ġsoc ial
ver y
åĪ Ļ
ä¾ĭ å¦Ĥ
è® ¤
Ġa ut
Ġs erv
g g
äº§ åĵģ
è§ Ħ
çľ ĭ
ve l
æĸ¹ æ³ķ
Ġb en
åĽł æŃ¤
c are
p er
åĬ Ł
å»º è®®
Ġp os
æ ¤
w e
åĮ º
i qu
Ġre al
æĹ ¥
Ġredu ce
a f
ang u
Ġs k
Ġ ed
erst and
åĨ µ
m ot
åħ Ī
ç ¥
åºĶ è¯¥
Ġth rough
Ġcon c
åıĳ å±ķ
è¯ ķ
æ¡ Ī
Ġenviron ment
åı £
Ġad v
åĪ «
Ġben ef
æ¸ ħ
åĳ ³
åħ ī
Ġdevelop ment
en g
å¦Ĥ ä½ķ
ç® ¡
iv ers
åĲ Ħ
Ġr is
ro w
er gy
è®¡ ç®Ĺ
ä¿¡ æģ¯
Ġpro duct
è¾ ĥ
è® º
èĩªå·± çļĦ
æĬ ¤
åı į
åħ¶ ä»ĸ
åĪ Ĺ
ç» Ĩ
ç© º
Ġg reat
e ar
æº Ĳ
j ect
çĶŁ æ´»
ä¸Ń çļĦ
Ġund erstand
è ĭ
h at
Ġpro gra
ç Ĭ
éĩ ĳ
Ġinclud ing
Ġacc ess
ĠĠĠĠ ĠĠĠ
è¯ Ĩ
ç ¦
o g
è£ ħ
Ġar t
Ġw rit
Ġinc re
Ġp h
æĸ¹ éĿ¢
Ġp ract
Ġus ing
é¡ ¹
æİ ¥
Ġway s
Ġl angu
æĶ ¯
Ġch all
åİ »
__ __
im ate
æĸ Ń
è ¨
Ġw ell
l l
Ġp ol
æĢ ģ
Ġ ra
C an
åİ Ł
b er
è¨ Ģ
ç« ĭ
Ġg en
éħ į
æ· ±
t e
ä¸ ī
ç§ ĳ
ĠF or
çº ¿
ç ħ
æ ¼
åķ Ĩ
æĿ Ĳ
Ġsign ific
Ġg u
Ġde cis
Ġtra in
Ġa g
Ġc reat
å® Į
æĹ¶ éĹ´
Ġon e
è Ħ
Ġn at
åŃ¦ ä¹ł
çļĦæ ķ
c ed
Ġwhe n
Ġb i
è İ
æĽ´ åĬł
iv es
p ort
å·¥ ä½ľ
v ing
Ġbe en
æĻ º
Ġl ife
å¼ ķ
ar m
çİ ĩ
çĶ¨ æĪ·
ä¹ ī
ä» ½
è¯ Ŀ
in ess
c om
åº ·
åĩ ı
ä» Ģ
è¾ ĵ
Ġv ari
c on
Ġmo d
ä»Ģ ä¹Ī
Ġen ergy
æĬĢ æľ¯
ert ain
m m
ver all
åĪ Ĵ
Ġro bots
Ġor gan
æİ ¨
ant s
åĩ Ĩ
d s
æŀ ģ
ç Ļ
Ġre qu
Ġ ess
ç® Ģ
ust ain
æ ¨
Ġst r
c ing
ab ility
re e
Ġed uc
åİ Ĩ
Ġcre ate
åģ¥ åº·
Ġdes ign
i ps
åģ ļ
èĬ ±
in k
èı ľ
æī ¾
æ® µ
æµ ĭ
Ġ V
ĠB y
å Ķ
é¦ ĸ
è¯ į
Ġwhe re
Ġdis c
äºĨ è§£
r ic
ä¸ Ķ
è¶ ³
æĺ¯ ä¸Ģä¸ª
ar ch
ç§ ¯
å¸ ¦
Ġwh ile
Ġsignific ant
çł ģ
æĪ ¿
Ġbe ing
Ġlangu age
it ive
2 0
Ġanalyz e
æĻ ¯
è Į
ri b
æ¨ ¡
ĠS t
è´ ¹
' t
Ġhealth care
Ġexperi ence
Ġ 5
ä¸ª äºº
ay s
è± ¡
p lo
Ġw ould
èĻ ĳ
æĶ ¶
é¢ Ħ
é¢ Ĩ
ä¿Ŀ æĮģ
en ces
åı ª
èĩ ´
æĪ ı
Ġment al
Ġfe w
at es
è¿ĩ ç¨ĭ
å®ī åħ¨
Ġs ustain
Ġw ere
å¤ ª
ç Į
Ġspec ific
Ġwor ld
çŃ Ķ
`` `
Ġt ake
åħ »
éĢ Ł
e ver
S S
éĶ Ģ
Ġb o
he s
Ġm us
æľį åĬ¡
è§ Ĵ
t en
æŀ Ĳ
p ow
d ict
v ent
1 0
çļĦæ Ĺ
ĸ çķ
Ġpro t
ç½ ®
Ġh igh
Ġb us
Ġind ust
åĲ ¦
c ial
äºº ä»¬
ĠA s
åĳ Ĭ
ad e
æĶ ¹
ç Ĺ
Ġh ad
Ġhe r
Ġj ust
ï¼ Ľ
è´ Ń
ç¬ ¬
é ĵ
Ġw ater
Ġf ood
éĺ Ł
a us
Ġchall eng
åħ į
æĸĩ åĮĸ
Ġmo st
é ¸
ç½ ĳ
çĽ ´
Ġs m
Ġact iv
plo y
O verall
å¿ «
ru ct
Ġindividual s
å§ ĭ
g ies
æŁ ¥
çĪ ±
i ety
I n
åĪĨ æŀĲ
è§ Ĩ
æ¸ ©
ç» ´
ol ut
åŁ Ł
omm end
Ġcom ple
æķ Ļ
Ġb u
Ġeduc ation
at her
Ġ 4
t ing
Ġf ind
æ² ¡
Ġh is
ä¹ĭ éĹ´
Ġeffect ive
Ġat t
Ġre se
èĥ½ åĬĽ
åŁ İ
Ġal low
Ġa v
Ġpro mot
æĻº èĥ½
æ» ¡
åħ ±
ie w
c ome
ç³» ç»Ł
Ġrespon s
äº Ĵ
Ġc ult
pow ered
Ġrec ommend
èĲ ¥
O SS
Ġch ange
è¯ ģ
v ed
æİ Ĵ
è§£ åĨ³
ic i
ĠH ow
Ġfe el
æľ Ī
Ġwh at
ä»¥ åıĬ
Ġse e
åŃ ©
b s
Ġs ur
æ £
al ity
Ġv is
ç¡® ä¿Ŀ
p ect
å®ŀ çİ°
Ġc are
å¹ ¿
ill s
åº Ń
as es
å¤ į
åºĶ çĶ¨
çļĦæ ĥ
ard s
Ġadd ress
Ġcomp an
Ġinv ol
Ġcustom er
åĽł ä¸º
Ġstud ents
Ġin s
æ³¨ æĦı
æŀ Ħ
æ¬ ¢
æµ ·
åı Ĥ
èĩª çĦ¶
é ©
ĠThe se
w n
æĺ ĵ
çĬ ¶
re n
Ġt reat
Ġbenef its
Ċ ĠĠĠĠĠĠĠ
å¯¹ äºİ
æĢ Ŀ
id er
ĠY es
Ġ K
åĸ ľ
Ġ ke
Ġen g
Ġpo p
o st
p are
Ġm on
æ¬ ¾
ĠM OSS
Ġem ot
Ġa c
ç¼ ĸ
f ore
åı ¥
Ġv al
il y
Ġis s
èĤ ī
èĩ ³
æ¸¸ æĪı
we en
Ġinclud e
Ġprot ect
åħ³ ç³»
éĻ ©
Ġse ver
Ġth an
éľĢ æ±Ĥ
ç» ĥ
ĠThe y
is s
y s
Ġj ob
éĺ ³
æ Ĳ
Ġbet ween
Ġm ach
---- ----
èĢĥ èĻĳ
è´¨ éĩı
Ġbus iness
w or
ic k
e g
åħ ħ
ç ¯
æĿ ¡
n er
a pt
Ġapp ro
Ġpl ay
æ²¡ æľī
¤ Ĳ
æľ ª
æĪ ĺ
å®¶ åºŃ
ãĢ ĭ
en cy
ĠC h
ãĢ Ĭ
Ġprovid ing
Ġres ources
âĢ Ļ
Ġass ist
Ġnat ural
è¯ Ħ
ä¾ ¿
Ġs af
åħ· æľī
è° ¢
çĥ Ń
s s
et h
ol d
Ġper form
Ġsever al
é ¤Ĳ
Ġe ach
è½ ¬
c i
Ġt y
Ġp ub
æ´» åĬ¨
oc us
çī Į
è¶ Ĭ
åĽ ¢
è½ »
è¯Ń è¨Ģ
Ġare as
éĩ ĩ
f t
ri end
å· ²
å¸Ĥ åľº
it ion
i ents
ç®¡ çĲĨ
è® ¸
äºº ç±»
èº« ä½ĵ
iqu e
Ġpart ic
ç» Ń
age ment
v es
ç¬ ¦
l ine
çº ¢
åĲ ¸
Ġpat ter
00 0
ç¤¾ ä¼ļ
åĨħ å®¹
Ġorgan iz
ou gh
Ġ ve
åŃ© åŃĲ
æĸ ½
æ¤ į
åĩ ł
ä½Ĩ æĺ¯
Ġa ff
Ġn um
le ment
èī º
è ĳ
Ġc ar
ag es
ab or
æĺ¯ä¸Ģ ç§į
Ġin st
è Ľ
ä¹ĭ ä¸Ģ
è· ¯
åį ³
Ġm ain
éļ ı
H ow
å¿ ħ
ç¨ĭ åºı
éŁ³ ä¹Ĳ
re d
æ² ¹
Ġoff er
et s
ç ¢
Ġd uring
çļĦ äºº
æĽ´ å¤ļ
Ġd i
ä»£ çłģ
èİ ·
åħ ĭ
Ġgu id
ä¸» è¦ģ
Ġf am
æİ §
éĢļ å¸¸
ĠA d
å¤Ħ çĲĨ
ur n
ow er
åĳ ½
æı ı
Ġsk ills
Ġto ol
w are
æĸĩ æľ¬
Ġpatter ns
çĽ® æłĩ
ac y
æī ĵ
åŁİ å¸Ĥ
Ġe very
r ies
è¯ »
éģ ¿
çĻ ½
éĢĤ åĲĪ
Ġpat ient
çľ Ł
ot h
å¥ ¹
åĶ ®
ä¸Ģ ç§į
Ġm ade
ä½ İ
is e
Ġre m
æ¶ Ī
åĲ «
a ir
Ġgen er
o y
ç² ¾
æĥħ åĨµ
ight s
Ġexp l
è§ ģ
Ġpre dict
ç± ³
æĽ´ å¥½
ä¿ ®
Ġcl imate
Ġf ocus
Ġg row
å®¢ æĪ·
ä¸į æĸŃ
it or
ĠE n
çº ¦
æĺ¯ åĲ¦
ä» ħ
æĪĳä»¬ çļĦ
æľ Ľ
o p
Ġm aking
y th
cc ess
Ġo wn
gg est
Ġt as
ut ure
Ġmod el
p ut
Ġrese arch
ere st
éļ ¾
Ġ [
i el
ation al
Ġcommun ic
ç¥ ŀ
ç© ¶
Ġre st
æĪĲ ä¸º
k ing
p r
åĮ »
c ur
èĤ ²
Ġ '
è¿Ļ ç§į
ç¯ ĩ
Ġc he
ow n
éĻ ħ
Ġf in
åĪ¶ ä½ľ
Ġsu ggest
å¢ŀ åĬł
Ġmed ia
rib ut
çļĦæĥ ħ
åĬł åħ¥
Ġc le
åĳ ¨
ç« ł
Ġth ink
Ġloc al
pport un
ĠY ou
Ġpl an
Ġev en
éĽ Ĩ
å· §
a x
Ġchalleng es
Ġpro f
ĠC an
Ġconc er
Ġf uture
åĬ ¿
Ġre f
èģ Ķ
Ġs elf
æĪĸ èĢħ
b le
åĽ ´
è¿Ĳ åĬ¨
Ġin f
éĩ Ĭ
Ġsustain able
Ġte xt
Ġg ra
äº Į
åĵģ çīĮ
ä¸įåĲĮ çļĦ
l ed
çĭ ¬
Ġo pportun
Ġcont in
y m
Ġg et
å¯ Ĩ
éĻ ¤
æ ħ
éģ¿ åħį
Ġ +
è§ ī
Ġre t
å¸ ĥ
Ġint erest
Ġsoc iety
ç»ĵ æŀľ
åĲ ¬
é¦ĸ åħĪ
Ġb re
Ġ2 0
ĠHow ever
è® °
on s
è¿ ĳ
å¼Ģ å§ĭ
Ġbu ild
Ġbe h
' m
v ers
Ġg ood
çĲĨ è§£
res ent
ç¦ »
åĬŁ èĥ½
Ġeff ort
l abor
é» ĳ
Ġbet ter
Ġre ad
å¾ ĭ
èĽ ĭ
he d
ä¹ °
å¯¼ èĩ´
Ġimp lement
ç ¿
äº «
å¤ ´
en se
Ġl ong
ot her
é¥ ®
åŃĺ åľ¨
çļĦæ Ħ
ä¸Ģ ä»½
yth on
n ing
åĩı å°ĳ
åĢ Ļ
ä¸ ĵ
åĲĦ ç§į
è ħ
å° ½
åį ĩ
æĬ ¥
Ġpub lic
Ġl ar
ä½ł çļĦ
a ut
é¢Ĩ åŁŁ
æ ļ
ol low
èģ Į
Ġch ang
Ġb est
h ip
åĨ į
ak es
Ġch at
it ed
Ġp ower
ä¿Ŀ æĬ¤
ä¹ ¦
è®¡ åĪĴ
éĩįè¦ģ çļĦ
åıĺ åĮĸ
il ities
Ġcons ider
æĪĳä»¬ åı¯ä»¥
éĤ£ ä¹Ī
Ġ ide
æ¼ Ķ
ag ing
Ġb ased
å® Ŀ
Ġr ange
Ġres ult
Ġm em
çħ §
Ġle vel
c ou
Ġb r
T h
ä¼ ģ
å»º ç«ĭ
Ġun ique
è® Ń
Ġm ark
è®¸ å¤ļ
è¡Į ä¸º
Ķ ç©¶
çļĦæ Ĭ
Ġs et
éª ¤
t s
Ġh ist
Ġa round
Ġre v
åħ¶ ä¸Ń
ï¼ ģ
æıı è¿°
æľĢ åĲİ
Ġs im
n ect
åĽŀ çŃĶ
éĺ ²
èī ¯
åĪ° äºĨ
ä¸ ĸçķ
æĸ¹ æ¡Ī
æĿĲ æĸĻ
ä¸ĸçķ Į
æĽ´å¥½ åľ°
ä¸¤ ä¸ª
Ġem ploy
Ġtr y
æ ĵ
Ġb ack
åĪ ĩ
Ġsu ccess
Ġdecis ions
Ġth ose
å¯ Į
Ġf act
æİ ¢
è¶ £
Ġpract ices
åĲ Ĺ
æī į
çİ ©
pt ion
æĸĩ ç«ł
Ġfe at
Ġpre vent
Ġwrit ing
çļĦæ Ģ
Ġn o
ä» ĭ
éĹ ¨
Ġd el
æ Ĵ
Ġopt im
in ation
Ġ Ċ
us ion
Ġacc ount
l ing
Ġd ivers
. "
at h
èĭ ±
ä¼ģ ä¸ļ
Ġg rou
åľ° çĲĥ
å¤ ±
Ġpersonal ized
ĠH e
è¡¨ è¾¾
cur ity
Ġf ollow
äº§ çĶŁ
Ġe ar
åİ ĭ
ver n
Ġiss ues
åĿ ĩ
é ²
Ġd r
iv ing
Ġtrain ing
Ġris k
åĩ ½
åı ²
æ ĳ
çļĦæĹ ¶
og n
Ġrequ ire
Ġenvironment al
b ack
éĶ ®
çĸ Ĺ
Ġinter act
åĽ¢ éĺŁ
æ¯ı ä¸ª
çĦ¶ åĲİ
Ġd ist
çĶ¨ äºİ
è®¤ ä¸º
åĩ½ æķ°
Ġs ent
Ċ ĠĠĠĠĠĠĠĠ
Ġredu cing
å¹ ²
Ġre p
Ġc aus
Ġmus ic
ç ª
Ġmon itor
Ġfor m
é¢ ľ
çĹ ħ
é¦ Ļ
Ġof ten
åı¯èĥ½ ä¼ļ
åĳĺ å·¥
Ġha nd
æĬ ķ
Ġneed s
æŃ¤ å¤ĸ
åı ĭ
iv ity
Ġactiv ities
åĸľ æ¬¢
Ġp ur
i an
s elf
åĬ¨ çī©
com es
å ©
Ġpr iv
a z
Ġrel ations
Ġmach ine
çļĦæ °
ä»· æł¼
ä»· åĢ¼
ç´ ¢
Ġfe ed
ä¸Ģ ä¸ĭ
Ġte am
Ġindust ry
è´ ¢
ĠP ro
Ġw ant
ç§ °
Ġcl ass
Ġlo ve
åħ³ äºİ
è¾ĵ åħ¥
Ġtrans port
Ġcomple x
Ġy ear
éĶĢ åĶ®
å¯ »
i ence
ist s
æĶ¯ æĮģ
Ġm ind
Ġf un
Ġch ar
æĮ ī
Ġconcer ns
con om
ç®Ģ åįķ
ä»¥ä¸ĭ æĺ¯
Ġst art
å¹¶ ä¸Ķ
av i
ä¸Ń åĽ½
åħĥ ç´ł
Ġcon f
Ġpos itive
Ġc ur
Ġc ount
er y
å ¡
å® ¤
Ġco st
Ġe qu
Ġpol ic
ast e
a w
éħ Ĵ
cou ra
iv en
pl ace
ch ie
çļĦæķ °
åĽł ç´ł
Ġf l
is m
Ġmed ical
Ġhum ans
Ġaut om
ertain ly
Ġ 0
Ġoff ers
Ġdet ect
Ġ 6
é£İ æł¼
Ġsh ow
çģ «
Ġan im
é¢ľ èī²
le ase
a ve
åĵ ª
ĠThe re
ä»¥ ä¸Ĭ
æľª æĿ¥
X X
çī ĩ
u ch
Ġtas ks
åħ· ä½ĵ
æ¤į çī©
Ġm in
èīº æľ¯
ic ult
Ġexperi ences
æİ§ åĪ¶
b e
Ġpat ients
å ²
ĠW e
Ġrec ogn
çĥ ¤
Ġsm all
åĿ Ĺ
å Ħ
å¤ª éĺ³
ct ion
Ġ ent
æį ¢
Ġbe fore
Ġbe come
å·² ç»ı
è¡¨ çİ°
Ġexp lo
Ġa chie
ä»» åĬ¡
å¤§ çļĦ
Ġd ay
Ġf ound
å± ±
on d
Ġtreat ment
pe nd
he n
Ġcon dit
ç¡® å®ļ
Ġbusiness es
ĠW h
æīĢ æľī
Ġdevelop ed
ç» Ī
æŃ¥ éª¤
Ġdiff icult
åı ·
ĠR e
éĶ Ļ
Ġch o
Ġqu est
Ġtrans pare
Ġpro ject
Ġcommun ity
o v
å¸ Ī
å¼ ł
åĪĨ ç±»
äºº çļĦ
s is
çĽ Ĭ
o id
ĠA n
w ays
Ġe as
Ġaff ect
Ġother s
Ġreg ul
æĢ§ åĴĮ
åĸ Ħ
ag n
ä½ľ ä¸º
åı¯ä»¥ å¸®åĬ©
åĦ ¿
Ġorganiz ations
é¸ ¡
åħ ´
Ġf riend
Ġ $
Ġdet ail
Ġtra ditional
Ġdesign ed
è´Ń ä¹°
ä½ĵ éªĮ
ç» į
er m
Ġcon nect
è¿Ļ æł·
Ġrecommend ations
Ġb oth
Ł éĢļ
æ¯ į
Ġs it
ä½ľ çĶ¨
ä»ĭ ç»į
Ġst e
ĠS ure
åı °
æĤ¨ çļĦ
Ġs he
Ġman agement
j oy
è´ Ł
Ġpromot e
Ġvari ous
( "
p or
Ġs ens
Ġess ential
get her
ular ly
äº ī
ir st
Ġo p
Ġspec ies
çİ° åľ¨
ch o
Ġbeh avi
çŃ ĳ
å¥ ³
Ġqu ality
Ġex t
è ¥
å®Į æĪĲ
æĢ» ä¹ĭ
éĥ¨ åĪĨ
ä»İ èĢĮ
åĽ ¾
Ġty p
Ġstr ate
è¥ ¿
Ġhe re
ar s
å¸ Į
çļĦæ Ŀ
å° Ŀ
e e
i er
Ġe c
ical ly
er ing
å¿ µ
ĠD e
Ġne g
å»º çŃĳ
Ġserv ices
Ġab le
im es
Ġopt ions
çĽ¸ åħ³
Ġsu b
Ġdecis ion
ĠC ertainly
Ġ åľ¨
æ ¢
Ġserv ice
) :
å¸¦ æĿ¥
Ġch ild
è§£ éĩĬ
ir t
ç Ĩ
ä¸į ä»ħ
æĿ ¾
ç§¯ æŀģ
r on
åı ¤
çł Ķç©¶
ç² ī
h or
Ġprof ess
çļĦ éĹ®é¢ĺ
Ġopportun ities
åİĨ åı²
Ġde f
ĠA m
Ġg r
a ur
å± Ĥ
çŃ ĸ
Ġpop ular
æ´ ģ
åıĳ çİ°
Ġpo em
èµ Ľ
Ġo b
Ġd on
Ġs ound
Ġtransport ation
i ous
åı ¦
Ġro le
Ġf iel
ç§ĳ åŃ¦
èĢ ģ
re en
æľī æķĪ
Ġc or
Ġfeed back
Ġtechnolo gies
äº¤ éĢļ
Ġad apt
' re
erv ation
Ġcommun ities
çİ° ä»£
Ġlo ok
Ġf ac
çĶµ å½±
Ġcol lect
å¾Ĺ åĪ°
h ips
Ġav ail
ere n
ä¸Ģ èµ·
çī Ľ
Ġpos s
Ġwe ather
Ġeffort s
¿ Ģ
æĹ ħ
o h
Ġcol labor
æĭ ¥
æĪĲ åĬŁ
èİ· å¾Ĺ
å± ħ
Ġt re
Ġs ources
Ġstud y
Ġprogra ms
éĻ Ĳ
Ġt ips
Ġmark et
al ly
å® ³
w ards
æ£ Ģ
ä¸Ģ ç¯ĩ
ri or
Ġto p
Ġe nd
å ĭ
Ġlar ge
ici ency
Ġde c
å®ļ çļĦ
ic ient
è¿ĩç¨ĭ ä¸Ń
lic ations
ç¼ º
Ġto ur
Ġto gether
äºº å·¥
Ġtool s
æĸ ¯
æ° ĳ
æĬ Ĭ
ä¹ĭéĹ´ çļĦ
çī¹ çĤ¹
Ġbe l
ditional ly
åĪ© çĶ¨
è¾ ¹
éĻ į
ĠI f
é¢ Ŀ
åį ı
å¾ Ģ
l ish
è¯ ī
in s
å¥ ¶
Ġe conom
Ġinv est
ĠD o
t ain
åĩº çİ°
çļĦ å½±åĵį
ater ial
Ġs ure
Ġp ass
çĶ »
è´ £
ç»ĵ æŀĦ
æķ ħ
æĥħ æĦŁ
æ ¿Ģ
ell ig
ä¼ Ĺ
æ¯Ķ è¾ĥ
ter n
Ġout comes
u p
Ġbe aut
re ad
çĶŁ æĪĲ
æķ° åŃĹ
Ġde m
i res
åı¯ä»¥ éĢļè¿ĩ
æĸ° çļĦ
Ġde ep
å ¨
çĭ Ĺ
åħ³ æ³¨
çĶŁ åĳ½
ä¼ł ç»Ł
Ġst ay
æŃ Į
åħ³ éĶ®
Ġpl ace
ä¸» é¢ĺ
å¾Ī å¤ļ
èĪ Ĵ
Ġprofess ional
y le
æĽ ²
1 9
Ġess ay
Ġg ive
ç³ ĸ
Ġon ly
æŁ Ĳ
Ġph ys
å¯¹ è¯Ŀ
Ġcont ro
Ġam ount
ce pt
iz ation
ç¼ĸ åĨĻ
åıĹ åĪ°
Ġal ways
æ¯Ķ å¦Ĥ
Ġpriv acy
a u
____ ____
Ġrespons ible
( )
çŃī çŃī
Ġm aterial
Ġon line
é ¼
æĶ ¿
åĽ Ľ
Ġen joy
åľ Ł
Ġsaf ety
Ġt w
Ġcommunic ation
ä¸ ½
æĺ ¾
olut ion
er g
į ä½ľ
Ġus er
Ġemot ional
t ime
é ¾
Ġse curity
Ġs ense
el ines
åĬ ±
çī© è´¨
u ra
Ġsh are
Ġanalyz ing
it al
é ±
irt ual
Ġvis it
b ers
Ġc our
Ġpro ble
è®¾ å¤ĩ
at ch
l and
é± ¼
æĪĳä»¬ éľĢè¦ģ
ç¨ ³
ib ility
Ġeff iciency
å£ °
è Ĵ
æľº åĻ¨
Ġcle ar
åĪ¶ å®ļ
iz ing
Ġcondit ions
l usion
Ġlo w
Ġl im
her s
Ġris ks
ç¿ »
Ġle t
åĴ ĸ
å¿ĥ çĲĨ
è¿ ľ
pr int
Ġchang es
Ġme as
Ġimpro ving
Ġc rit
5 0
å¸Į æľĽ
Ġa ud
åį Ĺ
æĹł æ³ķ
Ġneg ative
é¡¹ çĽ®
u nd
at s
Ġcompan ies
æī¾ åĪ°
Ġcont ribut
æŃ£ ç¡®
é» Ħ
å± ŀ
Ġunderstand ing
Ġm ult
Ġc lo
å¾ ģ
Ġp rior
r im
äººå·¥ æĻºèĥ½
Ġvari ety
Ġt aking
å Ĥ
as ter
od y
Ġ {
çļĦ éĩįè¦ģ
Ġf ore
èµĦ æºĲ
è¦ģ æ±Ĥ
Ġfeat ures
èį ī
m e
èĮ ĥ
Ġo per
çº §
é² ľ
æĬĢ å·§
ĳ æĪĺ
ç±» åŀĭ
æĿ ¿
è½ ¯
e w
Ġrest aur
Ġwith out
ruct ure
çļĦ æĺ¯
ç ı
Ġl ist
ur ate
Ġbo ok
äº ²
åº Ĺ
ä¹Ł æĺ¯
ä»» ä½ķ
Ġc am
ĠB e
Ġgo vern
Ġbehavi or
è®Ń ç»ĥ
Ġfam ily
æĿ Ĥ
Ġc ity
Ġappro ach
Ġacc urate
Ġs om
Ġe l
èĪ ŀ
è ŀ
åŁº æľ¬
Ġdis e
Ġen coura
ĠW hat
å ĥ
è¯ ¦
¦ Ĥ
å·¥ åħ·
åķ ¡
Ġst ill
cho ol
æĦŁ åĪ°
çĶŁ çī©
åĴĸ åķ¡
åĩĨ å¤ĩ
Ġw aste
Ġev ents
æķĻ èĤ²
Ġ 8
Ġm ust
i ed
as ing
å½¢ æĪĲ
Ġproduct s
åħ ¸
è® ²
f ter
å· ®
l ess
Ġc ro
Ġfin an
åıį åºĶ
åĪĽ éĢł
Ġguid elines
åĪ ¤
ä½ľ åĵģ
è¡¨ ç¤º
å¼ Ĥ
Ġknow n
Ġt est
è¯ ¯
o pe
Ġus ers
A I
å¾ ·
ne w
è¿ ½
iqu es
æ¨¡ åŀĭ
åĬĽ åĴĮ
Ġhist ory
ĠA l
æĬķ èµĦ
å°Ŀ è¯ķ
an k
Ġh ome
éĴ Ł
ä¸ °
èĪĴ éĢĤ
Ġincre ase
Ġh ab
åĪ »
è¾ĵ åĩº
Ġlead ing
Ġ 7
é£İ éĻ©
Ġperform ance
Ġha pp
åŃ £
Ġst and
t y
ç¦ ı
Ġcustom ers
åį İ
Ġbel ie
Ġcompan y
å½ ķ
é£Ł çī©
ĠU n
Ġsu mm
re nt
ĠC on
éĢĤ éĩı
an ced
Ġ i
Ġl ight
Ġanaly sis
å° Ĭ
ĠU se
ou se
t ed
Ġchar act
Ġ #
t o
ç» ľ
ä¸į æĺ¯
Ġdevelop ing
åŁ ¹
Ġstrate gies
Ġm ight
çŁ Ń
çļĦæ İ
Ġf irst
èĥ Į
çĮ «
Ġinclud es
åĽ Ń
Ġdi agn
Ġgrow th
ä¸ĵ ä¸ļ
Ġdo es
1 2
ç» ¿
Ġke ep
è¯¦ ç»Ĩ
åĥ ı
åıĳ çĶŁ
f act
åı¯ä»¥ åľ¨
ç« Ļ
æĭ ī
æµ İ
Ġchat bots
Ġbre ak
è¡ ¡
çŁ ³
æĮģ ç»Ń
l ife
Ġ1 0
æ´ Ĺ
ĠAd ditionally
å£ «
em ber
Ġgo als
å¾ ®
Ġv iew
Â ·
o ve
åŁº ç¡
Ġoptim ize
Ġt em
Ġd own
åŁºç¡ Ģ
è¶ ħ
er cis
Ġl ess
e es
æĿ ĥ
Ġke y
Ġwor ks
è® ¨
åı¥ åŃĲ
Ġro bot
us s
åħ¨ çĲĥ
ç»ı æµİ
æīį èĥ½
eg r
ä»ĸä»¬ çļĦ
äº Ķ
èµ· æĿ¥
ç ĵ
Ġfact ors
Ġcult ural
æľ ¨
Ġwork ing
ä¼ ¼
èĲ ½
éĢŁ åº¦
ä½ ı
Ġeffect s
å© ļ
b r
åİ ħ
ra in
" )
åŃ¦ çĶŁ
" ,
Ġp ar
at form
Ġens uring
çĶ± äºİ
Ġm uch
Ġwor ds
Ġm ar
ç»ı éªĮ
ä¸º äºĨ
åĲĪ ä½ľ
v en
Ġ /
Ġfinan cial
wor k
or ies
æ² »
Ġtechn iques
æĭ¥ æľī
ra p
å° Ķ
Ġ est
Ġavail able
Ġl it
æ ¹
Ġeff icient
el s
o ver
Ġl and
Ġare a
Ġint ellig
Ġpre f
at ure
çŁ¥ è¯Ĩ
æĵ įä½ľ
å¾ ħ
ig ate
çļĦæ Ķ
Ġme an
b o
Ġcontro l
éĩĩ çĶ¨
ric ult
Ġprogra mm
Ġto wards
th ing
ä¸į è¦ģ
Ġth ough
å½ ©
Ġc ertain
Ġw ild
ä» Ĭ
Ġcons ervation
çŁ¥ éģĵ
Ġreal ly
çļĦ åľ°
i o
é¥ °
Ġf ul
çİ¯ ä¿Ŀ
Ġexplo re
çļĦæ ¸
Ġdivers e
åĬł å¼º
çļ ®
Ġemot ions
Ġav oid
' ll
çļĦæ ī
åį ¡
Ġpl atform
an ces
Ġsit u
ä» ĺ
ä½į ç½®
or ing
çĽ Ĳ
ä¸ ĩ
Ġde v
n ov
as h
Ġtw o
å® ł
b on
èµ °
åĪĹ è¡¨
Ġc y
èį Ĳ
ĠS ome
Ġexpl ain
Ġa ware
ç¤¾ äº¤
d ay
åı Į
æ² ŁéĢļ
æ° §
å¼Ģ åıĳ
åħ¬åı¸ çļĦ
Ġa ir
åĩ »
ar ing
éĥ½ æĺ¯
Ġlevel s
od s
Ġste ps
Ġc ap
æ´ ŀ
é© ¬
Ġret urn
Ġm et
çĶŁ æĢģ
ä¸° å¯Į
æŁ ĵ
æīĢ ä»¥
é¡ »
Ġ er
Ġf ra
3 0
è ĵ
âĢ Ķ
Ġ å½ĵ
a h
ä¿ ĥ
Ġlike ly
ĠĠĠĠĠĠĠĠ ĠĠĠĠĠĠĠĠ
åĪ Ŀ
Ġcreat ing
Ġf arm
Ġb al
Ġl ives
å®ĥ çļĦ
Ġab ility
ä¸Ĭ çļĦ
Ġsent ence
åĤ ¨
Ġr out
Ġprovid es
Ġag ain
å®ł çī©
éĢ Ĳ
Ġyear s
èŀ į
Ġphys ical
P ython
ĠE x
it ing
è°ĥ æķ´
ç½ĳ ç»ľ
æħ ¢
ç©º éĹ´
åĽ °
è± Ĩ
æĽ´å¤ļ çļĦ
ĠA r
Ġmain tain
å®ŀ éĻħ
Ġtra vel
Ġs at
p ro
çĶµ åŃĲ
æ± ½
e x
åģ ĩ
æĲ Ń
éļı çĿĢ
è¿ĺ æľī
ç¤ ¼
al e
Ġcons um
Ċ Ġ
n cy
Ġquest ions
f ort
m aking
Ġdes c
1 5
Ġinvol ves
Ġst ress
åŃĹ ç¬¦
he re
Ġimpact s
Ġex ercis
åĿ ļ
led ge
ç§ĳ æĬĢ
oc i
Ġeffective ly
æ¶Ī è´¹
Ġconc lusion
éĺ ħ
Ġst re
iss ions
æ· »
I t
éĿ Ļ
Ġv irtual
è¡ £
Ġachie ve
our ce
è¿ ŀ
ac ks
è¡¨ æł¼
Ġimport ance
èĩª æĪĳ
The se
n um
çļĦæ ł
Ġrelations hips
Ġwork ers
g ical
or por
ers on
åĳ ¢
nd s
æİ¨ èįĲ
oh n
å¿ħ é¡»
å®¹ æĺĵ
ĠG o
Ġt ell
ĠR es
on om
Ġbe c
æ³ Ľ
p os
Ġmo ve
Ġst ory
æŃ ¢
Ġprior it
Ġindust ries
è ľ
Ġposs ible
ĠM an
Ġexp ress
ab ilities
Ġint egr
ä»£ è¡¨
Ġrespon d
åĪĨ éĴŁ
æľº ä¼ļ
Ġth ings
äº¤ æµģ
Ġm eth
ur ther
Ġw ide
èĳ Ĺ
æĪĳ çļĦ
ĸçķ ¥
id es
eth ing
ĠWh ile
p an
çŃ ĸçķ¥
Ġc ent
Ġp lease
olo gy
ura cy
å¾ ª
w ard
n ce
Ġthe n
çª ģ
å¥ ĩ
Ġb lo
a i
æŀ Ĺ
ç®Ĺ æ³ķ
ç» ¼
Ġpr int
ac es
l u
ª æĸ½
p re
çļĦæĦ ı
Ġs ol
Ġover all
h old
Ġ es
çļĦ ä¸Ģ
éģ ĩ
Ġpop ul
å°ı è¯´
æ³ ¢
åį ģ
ä¹Ł åı¯ä»¥
é£Ł åĵģ
Ġcont ent
å° Ħ
Ġrequ ires
æ£Ģ æŁ¥
ĊĠĠĠĠĠĠĠĠ ĠĠĠ
Ġgrou ps
Ġf air
Ġb l
å®ŀ éªĮ
æĮī çħ§
os p
st r
ä¸į èĥ½
Ġh arm
Ġpro du
çļĦæĬ Ģ
ç ĩ
t le
Ġanim als
è§Ĵ èī²
le v
æ¸ Ĳ
å¤į æĿĤ
Ġde pend
æĮ ĳæĪĺ
åĮħ åĲ«
Ġhelp s
Ġop en
Ġn et
ĠĠĠĠ Ġ
Ġstr ong
Ġj our
å¹¿ æ³Ľ
æķ´ ä¸ª
Ġe lect
Ġrespon se
åįķ è¯į
æľ ĭ
Ġ <
åĮĸ åŃ¦
éĴ Ī
Ġqu ick
ual ly
Ġsom ething
Ġtra ck
åº¦ åĴĮ
eren ces
æł ĳ
Ġacc uracy
Ġex c
é£ ŀ
Ġfiel d
å¯» æī¾
éħ ¸
Ġh ope
ç ĳ
Ġin nov
ç» ª
al k
Ġtyp es
Ġd id
åĬ ª
Ġc all
è¯ Ĺ
Ġear ly
ĠO ne
a pp
Ġcomm on
æľĢ ç»Ī
Ġche ck
Ġs ym
çĤ Ĵ
æĬĢ èĥ½
Ġen h
Ġag ricult
Ġim m
ç» ĩ
æ»¡ è¶³
Ġs chool
b al
Ġfollow ing
b ased
Ġwe bs
Ġcult ure
ĠC om
w ay
ä¸Ģ å®ļ
åķĨ åĵģ
ud e
çļĦ åıĳå±ķ
çĶŁ äº§
os ystem
Ġpl ant
åı ¶
åĲ ĥ
ä»ĸ çļĦ
d er
è¯ ¢
å®¶ åħ·
Ġf ree
ç§ »
æİ Į
Ġb ody
Ġp resent
Ġpartic ularly
Ġchild ren
Ġstud ent
) .
çī¹ å¾ģ
è Ķ
éĺħ è¯»
æķĪ çİĩ
Ġprogra m
éħ ±
åıĺ å¾Ĺ
i x
Ġcom e
çļĦæ ²
ĠT e
ĠT o
åħ± åĲĮ
Ġemploy ees
è¯´ æĺİ
Ġhe art
Ġm ot
æľĭ åıĭ
er ic
è¯ ĳ
Ġcur rent
æĪĲ æľ¬
Ġto o
çİ© å®¶
åĪĽ æĸ°
Ġec osystem
å¸¸ è§ģ
ä¸Ģ æŃ¥
Ġp res
Ġmult i
åĳĬ è¯ī
ä¸ ¥
Ġm it
Ġact ion
çĨ Ł
Ġhab it
åı£ æĦŁ
ç® ±
Ġus es
å¢ŀ å¼º
ç»Ļ åĩº
Ġ 9
Ġde p
Ġeconom ic
æĢ§ çļĦ
1 8
åĨ °
Ġhelp ed
åĲ¸ å¼ķ
çİ ĭ
Ġdiagn os
å ł
èģĶ ç³»
ç¾ ¤
ç»ĥ ä¹ł
æĪĲ éķ¿
Ġpo int
å®ļ æľŁ
åĳ ¼
èį ¯
æĿ ¯
æ¤ Ĵ
æķĪ æŀľ
Ġspec ial
æ· ·
åĩł ä¸ª
aus e
é Ĩ
æ¯Ķ èµĽ
è· Ŀ
W hat
Ġt imes
ic les
Ġ *
ç´ §
å¦Ĥæŀľ ä½ł
çĭ¬ çī¹
çģ µ
ç¨ İ
Ġcar bon
Ġbi as
åĬ© äºİ
Ġcon st
èĩª çĶ±
æĿ¥ è¯´
å°± æĺ¯
åį °
Ġme et
è§Ħ åĪĴ
çļĦç ¾
èĲ¥ åħ»
at ors
ç¨³ å®ļ
od e
çħ ®
Ġass oci
å¿ Ĺ
è¡Į æĺŁ
æĿ İ
Ġrev iew
åĩ Ģ
ĠR o
Ġknow ledge
ä»¥ ä¾¿
æµĭ è¯ķ
åĲĪ éĢĤ
s c
å½¢ å¼ı
Ġfriend s
Ġnat ure
Ġcrit ical
æ´ ĭ
Ġa fter
er ve
Ġre ce
çļĦæ Ń
æ±½ è½¦
çķ Į
Ġlo ss
Ġapp lications
å¤ļ ç§į
éĶ ħ
ä¸ ²
Ġins p
-- -
ĠS h
Ġv ol
l ut
o ks
se qu
Ġb ir
åĲĪ çĲĨ
Ġne cess
æĪĳ æĥ³
çŃī æĸ¹éĿ¢
é¼ ĵ
Ġso ft
Ġl ive
å°ı æĺİ
ĠI nd
Ġbr ing
æĺ¯ æĮĩ
Ġso il
il ar
ä¸ ľ
æĿ¡ ä»¶
Ġt ri
äº ®
Ġm om
æı ¡
ä¼ °
ŀ äºī
çĽ ĳ
èĤ ¤
è´¢ åĬ¡
æ·» åĬł
é¥® é£Ł
Ġallow ing
åº ķ
Ġr ight
Ġexp ert
Ġsu pp
Ġin it
çļĦæ µ
ar get
Ġexp ect
Ġ1 9
Ġmeas ures
olut ions
j ust
ar c
å° ļ
Ġpract ice
æľī åĬ©äºİ
å¤§ éĩı
' ,
im ent
Ġcontin ue
Ġdisc uss
1 00
éļ ľ
çļĦæĦ Ł
Ġref lect
it ation
åį «
äºĨ ä¸Ģ
ne y
ĠL e
is ed
è¶ ĭ
äºĨ ä¸Ģä¸ª
Ġincre asing
çļĦæ Į
Ġst ru
æĢ» ç»ĵ
e ly
å® ĩ
Ġaut hor
è¡¨ éĿ¢
Ġ x
æķħ äºĭ
em ic
Ġrep resent
g er
Ġincre ased
on es
ain s
Ġtrain ed
Ġf ish
Ġst ate
åĨ ·
çĶŁ éķ¿
Ġre new
ord ing
åĮ Ĺ
æİ ªæĸ½
å¹³ è¡¡
Ġsuccess ful
ä¸ĭ éĿ¢
Ġactiv ity
èĮ ¶
éĢĤ åºĶ
èĦ ĳ
æİ¢ ç´¢
ff ic
ç»Ħ æĪĲ
at ives
äº ļ
Ġsc en
æ² Ļ
g ress
ä½¿ å¾Ĺ
æī ¿
Ġdisc rim
Ġassist ants
Ġex ist
çķ Ļ
Ġsp ace
æľĢ è¿ĳ
Ġide as
éĩĩ åıĸ
l ight
æ³¨ éĩį
çļĦæĹ¶ éĹ´
è¿ İ
Ġcom b
éĢĤ å½ĵ
Ġyour self
rit e
as on
åĮ Ģ
åı¯ä»¥ ä½¿çĶ¨
åħħ æ»¡
Ġval ues
æ ½
Ġbi ases
ä¿ĥ è¿Ľ
åľº æĻ¯
ro ss
åį³ åı¯
Ġc ru
Ġnum ber
Ġty pe
r ast
åĩĨ ç¡®
Th is
Ġp ast
çģ ¯
å®ļ ä¹ī
Ġs olutions
Ġt er
ä¿Ŀ è¯ģ
èĶ ¬
å¹ ¸
åī §
åħ´ è¶£
å ª
ent ion
av or
Ġsc ient
åĬª åĬĽ
Ġprovid ers
Ġpolic ies
al u
ĠI m
Ġallow s
Ġintellig ence
çļĦ æĸ¹æ³ķ
è¿Ļ æĺ¯
Ġ `
Ġem issions
Ġ å°Ĩ
Ġmean ing
Ġst yle
åİŁ åĽł
Ġstru gg
çļĦç¾ İ
if ul
dit ion
éĥ½ æľī
ç©º æ°Ķ
å®ĥä»¬ çļĦ
ä¼ĺ åĮĸ
Ġinf lu
åŁº äºİ
Ġdetail s
Ġtranspare ncy
Ġm ess
ĠC l
Ġg ame
p ri
è¶ĭ åĬ¿
å½ Ĵ
ç¿» è¯ĳ
æķ £
B y
é Ń
ĠAm eric
Ġproduct ion
Ġinc orpor
æĻ ļ
Ġinvol ve
Ġh ot
æĻ ®
b y
Ġf low
Ġem erg
åº §
Ġide a
åİĭ åĬĽ
éĿ Ĵ
om s
èģĮ ä¸ļ
Ġre port
Ġp ap
Ġthe rap
Ġs al
åıĤ ä¸İ
æĸĩ åŃ¦
æĲŃ éħį
o ot
) ,
Ġc r
Ġprocess es
g in
å¹³ åı°
å¯ Ł
Ġpromot ing
æļ ĸ
ake hold
ç» §
iv er
æ ¦Ĥ
Ġmodel s
Ġd ra
è ĸ
Ġgrou p
è¶³ å¤Ł
Ġg reen
Ġhealth y
Ġcom fort
Ġad ditional
ä¸Ģ æ¬¡
é¤Ĳ åİħ
Ġmaterial s
Ġman age
çļĦæ ¯
ä¼ ¤
åıĬ æĹ¶
Ġg lo
Ġst at
å¿« éĢŁ
Ġmonitor ing
ail y
ra nd
o ice
res h
ç»Ħ ç»ĩ
Ġund er
Ġnecess ary
Ġhelp ful
ĠC ol
é»ĳ æ´ŀ
åģļ åĩº
Ġcour se
Ġm at
Ġle g
Ġf ace
ä» ¤
èī¯ å¥½çļĦ
oc k
åĮ» çĸĹ
çĽ ĸ
id ence
Ġassoci ated
Ġpro gress
åľ Ĩ
Ġevery one
ç¼ ĵ
ĠEn g
w ord
èĵ Ŀ
å¤© æ°Ķ
Ġact ions
em s
ĠP l
å® Ļ
us h
é¡ ¾
Ġcost s
at or
ç© ¿
Ġamount s
èĶ¬ èıľ
. .
Ġman ner
Ġcon sequ
æ°Ķ åĢĻ
Ġins ights
be ing
at ory
en er
le x
Ġme ans
Ġcollabor ation
Ġpers pect
or m
pri ate
å°Ĭ éĩį
Ġt arget
è®° å½ķ
åĢ Ĵ
Ġrenew able
æĦ ¿
èĥ½ æºĲ
Ġin put
å®ĩ å®Ļ
a pe
Ġad just
er ies
Ġd ire
ä¾ Ŀ
ust r
f ect
Ġbeaut iful
Ġd ue
re ci
çĮ ®
èĥĮ æĻ¯
èĤ ¡
Ġd am
i k
Ġadv anced
çĽ¸ å¯¹
åĲį ç§°
Ġsh ort
Ġob ject
è¿Ļ éĩĮ
éĢł æĪĲ
èĲ¥ éĶĢ
çļĦæĥħ æĦŁ
ç¥ ¨
Ġcount ries
in ing
ist ic
Ġpl ans
è´£ ä»»
Ġst akehold
t he
Ġass ess
æĢĿ èĢĥ
e ch
æĪĲ åĳĺ
2 1
Ġd aily
Ġcomp ut
çļĦæĥħ åĨµ
æıĲ åĩº
Ġ âĢľ
åª Ĵ
ä¸Ń å¿ĥ
is hed
ĠS e
onom ous
er n
ç»´ æĬ¤
am es
Ġpriorit ize
çº ¸
èĤ ¥
Ġtem per
æ¸ħ æ´ģ
us e
æ± ¡
Ġmin im
æĺ¯ åľ¨
å¤§ å°ı
åĵª äºĽ
Ġapp reci
ren g
Ġregul ations
Ġ Z
éĶĻ è¯¯
r ans
èĢĮ ä¸Ķ
èĪ ¬
èĳ ±
è Ĩ
æ°´ å¹³
è´Ń çī©
åŃĹç¬¦ ä¸²
å¯¹ æĸ¹
Ġh im
Ġconsequ ences
å· ´
é¼ĵ åĬ±
Ġf il
äºº åĳĺ
è·Ŀ ç¦»
ĠW hen
çļĦæ° ´
çī© çĲĨ
åĲĮæĹ¶ ä¹Ł
åľ¨ è¿Ļä¸ª
åħ¶ æ¬¡
, "
æ¶ ²
çĶ ·
iv al
åı¯ä»¥ è®©
æĥ ¯
Ġadv ance
Ġve h
å¦Ĥæŀľ æĤ¨
Ġest ab
ri pt
ç« ¯
ä¸į ä¼ļ
Ġtranspare nt
æķ° éĩı
çĽ ĺ
Ġspe ak
Ġp ark
Ġstakehold ers
é º
Ġev ent
çļĦæķ° æį®
èĩª åĬ¨
ç»Ĩ èĬĤ
è¯Ħ ä¼°
æ¶ ¦
Ġpref erences
Ġve get
æį Ł
e qu
Ġg l
Ġp ain
o gra
Ġtra ffic
Ġo ce
ä¹ ĺ
e xt
âĢĿ ï¼Į
Ġan other
å¤ļ å°ĳ
Ġagain st
ç»ı åİĨ
è®¡ç®Ĺ æľº
èĢ Ĳ
è½¯ ä»¶
ĠP re
Ġpl ants
çĽ¸ äºĴ
é¢ ĳ
\ _
Ġs ame
ru g
Ġval u
Ġo cc
çļĦç ¤
Ġsustain ability
ĠS he
d e
ot e
Ġd ig
N A
Ġcru cial
æī §
å± Ģ
æĭ Ł
æĭ Į
Ġn on
Ġeng aging
Ġinter n
L P
æ¸© åº¦
æł ¸
æĬ¥ åĳĬ
æĿ¥ è¶Ĭ
h ood
ä¸ī ä¸ª
å¦Ĥ ä¸ĭ
çī© ä½ĵ
for ce
Ġneed ed
Ġim ages
Ġbuild ing
ici ous
Ġ æĪĳ
è¶Ĭ æĿ¥è¶Ĭ
æĶ¾ åħ¥
g o
éĻį ä½İ
å½ĵ åľ°
æ¶Īè´¹ èĢħ
ç £
ivers ity
é¢Ħ ç®Ĺ
ic le
æ·· åĲĪ
Ġpartic ip
Ġdis hes
Ġthrough out
Ġwith in
åı ³
é«ĺ çļĦ
Ġph ot
Ġtr ust
æĦı è¯Ĩ
ä»¥ ç¡®ä¿Ŀ
çĬ¶ æĢģ
Ġautom ation
1 1
Ġpo st
æīĭ æľº
wor ks
éĢ ı
åº ĵ
Ġw ind
Ġ= =
Ġprocess ing
èĮĥ åĽ´
æĦı ä¹ī
è¿½ æ±Ĥ
Ã ©
å¾ Ħ
éĿ ł
ä¸ ĸ
èĻ ½
ç« ŀäºī
Ġappro priate
æĽ´ å¥½çļĦ
Ġcharact er
c l
ç§ ĺ
it ude
Ġte ac
le ep
ĠDe velop
in ce
å· ¦
g round
è¡Į ä¸ļ
éĴĪ å¯¹
å¿ħ è¦ģ
Ġdet erm
-------- --------
Ġst reng
d o
Ġchalleng ing
or k
Ġan x
èī² çļĦ
Ġh ard
æĺİ ç¡®
åĪĨ äº«
æĶ¹ åıĺ
ä½ ³
åıª æľī
å±ķ ç¤º
Ġcam p
çº ³
a j
et ic
u ment
ä½ł åı¯ä»¥
Ġpol lut
Ġh ig
pp ing
e ad
çĦ¶ èĢĮ
ç¬¬ äºĮ
é¸ Ł
çī© åĵģ
ä¸ ¾
Ġencoura ge
pe cial
Ġac ross
el ves
äºĭ ä»¶
c le
æ ©
åªĴ ä½ĵ
n ers
Ġc al
èĻ½ çĦ¶
åĽ º
ä¹ł æĥ¯
Ġsaf e
èĥ½ éĩı
ist ics
ä¹ĭ åīį
Ġiss ue
å¤ļ ä¸ª
åĨ³ çŃĸ
è¾¾ åĪ°
æĹ ©
ä¸į åı¯
ä¸Ģ çĽ´
å· ¨
æĦŁ è°¢
ĠN ew
ä¸Ģ æ®µ
Ġmach ines
å°Ĩ åħ¶
ç»§ ç»Ń
Ġwor d
çī¹ åĪ«
Ġagricult ure
æĢ İ
éĢĲ æ¸Ĳ
éĵ ¾
è¯ ¾
Ġk ind
å¢ Ļ
è°¢ è°¢
Ġalgorith m
è£ħ é¥°
Ġal ong
Ġeas y
äº ĳ
è§£åĨ³ æĸ¹æ¡Ī
Ġaware ness
' ve
æĸ¹ åĲĳ
Ġne ver
Ġquick ly
Ġres pect
çļĦæ Ļ
Ġam ong
Ġaccount ability
Ġl aw
en ing
Ġdef in
Ġsur round
éĵ ģ
Ġpower ful
A n
Ġcaus e
æ ¥
æİĮ æı¡
è¿ĺ æĺ¯
Ġcreat ive
è¡ Ģ
Ġloc ated
un ning
åľ° åĮº
éĿ¢ ç§¯
éĽ ¨
Ġne ar
Ġinit i
ress ion
ä¸ĭ æĿ¥
2 5
é© ¶
¾ çĹħ
ab les
æľī è¶£
å¾ª çİ¯
çŃĶ æ¡Ī
çł ´
ic ation
éĻ ¢
æ²» çĸĹ
Ġad dition
äºĭ æĥħ
Ġbec ause
åı Ī
èĤ Į
çº ª
s ide
æĭ ħ
æ¹ ¿
åį Ĭ
é¡ º
ĠA nd
Ġrestaur ant
Ġv ide
Ġproble m
az ing
Ġmem bers
Ġn ut
Ġc ou
æµ ª
Ġ è¿Ļ
Ġhelp ing
ĠI s
æıĲ åįĩ
ĠĠĠĠ ĠĠ
Ġsh o
Ġre lev
Ġar g
Ġbal ance
ill ed
æĺ¯ ä»Ģä¹Ī
åĬĽ éĩı
ire d
å¤ ľ
åı¯ æĮģç»Ń
Ġper fect
* *
ific ation
æ¶ ī
Ġwild life
an e
Ġrel ated
å®¤ åĨħ
åº ľ
äº« åıĹ
our s
è· ĳ
åķĨ ä¸ļ
ach ing
Ġsu n
Ġrecogn ition
el t
Ġor der
å¹³ åĿĩ
g ing
ä¸ ´
çĤ ¼
Ġgo ing
åĳ¼ åĲ¸
Ġsoft ware
Ġre mot
èĳĹ åĲį
å¹¸ ç¦ı
Ġenh ance
èĻ ļ
Ġn ow
Ġth reat
Ġd est
åĿĩ åĮĢ
Ġac ad
åºĶ å¯¹
çľĭ åĪ°
c ast
è¾ Ĩ
ific ial
Ġ very
o ok
åĮº åŁŁ
¹ ģ
æĪ¿ éĹ´
æıĲä¾Ľ äºĨ
Ġmot iv
Ġaccess ible
åĨ³ å®ļ
Ġh y
å® Ī
Ġf lo
u g
Ġinform ed
åĵģ è´¨
çļĦç Ł
av es
ar r
ĠW ith
le t
è§Ĥ çĤ¹
en ge
è¡Į åĬ¨
f riend
ç³ ķ
Ġf urther
ĠE ns
ç§ ģ
Ġad o
Ġcle an
çĽ¸ åºĶ
Ġf re
pecial ly
è Ĺ
Ġc apt
çļĦç ľ
Ġsome one
Ġc ell
æĶ¾ åľ¨
æ¬¢ è¿İ
Ġ âĢ
Ġdev ices
çļĦ æĸ¹å¼ı
Ġjob s
au gh
n ot
æľī äºĽ
åħ¬ åħ±
g est
çļĦ çĶŁæ´»
çľ ¼
çļĦ ä¿¡æģ¯
ĠC ons
æİĴ åºı
Ġbenef it
re ct
å¤ ı
un te
ç¬¦ åĲĪ
ä¸Ģ ä½į
åĨħ éĥ¨
Ġlook ing
d ing
æĬ ĺ
è¾ ĳ
è¿Ļä¸ª éĹ®é¢ĺ
Ġes pecially
çľ ł
âĢĿ ãĢĤ
å¥ ı
ra y
è¿ĺ åı¯ä»¥
åĪĽ ä½ľ
com ing
Ġmulti ple
éļ Ĳ
æ³ ¡
æłĩ åĩĨ
Ġm il
éľĢè¦ģ æ³¨æĦı
Ġanx iety
æĶ¹ è¿Ľ
å± ĭ
æ±¡ æŁĵ
ç¼ĸ ç¨ĭ
è´¹ çĶ¨
Ġev alu
imate ly
Ġlit er
ogra ph
Ġse arch
1 6
en ced
Ġmeth ods
çĥ Ī
æ¨¡ å¼ı
çĬ¶ åĨµ
æĶ¹ åĸĦ
å¤ļ æł·
c er
å¥ ĸ
Ġsat is
Ġwebs ite
åĬ ŀ
åģ¥ èº«
Ġglo bal
Ġas k
Ġplatform s
Ġdise ases
çİ° è±¡
t ics
æ± ģ
åĪ¤ æĸŃ
Ġcon vers
Ġrelations hip
è®¾ ç½®
æ³ķ å¾ĭ
Ġmind ful
é¢Ħ æµĭ
o very
åģ ľ
çĶµ è§Ĩ
è§Ħ åĪĻ
ak en
Ġimplement ing
is ing
åıĤ åĬł
æĥħ ç»ª
Ġprovid ed
æ·± åħ¥
Ġprogramm ed
Ġrelev ant
çļĦç ĥ
çĸ ¾çĹħ
åĮ» çĶŁ
åĪĽ å»º
Ġgener ate
æĶ¶ åħ¥
ä¼ ĳ
iz es
Ġtrans form
éģ µ
ast ic
åĳ Ī
æ¯ı ä¸ªäºº
è¿ Ķ
i et
Ġv oice
éĢ Ķ
æĶ¾ æĿ¾
åį ´
èĥ ľ
Ġst ructure
æĹ¶ å°ļ
Ġ Q
Ġel se
du c
Ġem p
èģ ļ
è´ §
ac hes
ç§ Ģ
an ks
Ġn ight
Ġprofessional s
Ġb as
è´ µ
e c
Ġdivers ity
it es
d r
åĽ° éļ¾
ĥ åľ
åŀ ĥåľ
åŀĥåľ ¾
Ġd rug
ç¢ ³
Ġn ame
åĮĸ çļĦ
a id
æľĢ å¤§
æĳ Ħ
ç®Ģåįķ çļĦ
Ġw arm
Ġd one
Ġfun ction
as c
å¼º è°ĥ
Ġdem and
Ġvis ual
Ġup d
æŃ£ åľ¨
Ġsim ilar
éĢ Ĵ
æ¯ Ľ
éĶ »
ent ly
Ġvalu able
Ġdis aster
ä¸Ģ èĪ¬
æ´ ²
ĠR eg
Ġdiscrim ination
åĨĻ ä¸Ģç¯ĩ
Ġgovern ment
Ġ å¥½çļĦ
5 00
ly ing
Ġpre v
Ġpre pare
Ġproble ms
è· ³
Ġpro m
åĨ ²
å®ī è£ħ
éĶ» çĤ¼
æµ ĵ
è ¹
åºĶçĶ¨ ç¨ĭåºı
n g
Ġcomp et
åĪĨ åĪ«
olo gical
å® ¡
Ġtrans l
Ġdire ct
åī Ĥ
Ġsuggest ions
Ġpap er
Ġrecogn ize
t on
Ġmit igate
è®¨ è®º
äºĴ åĬ¨
ĠE ar
Ġam azing
c re
é¦ Ī
Ġinvol ved
f ace
æľī åħ³
) )
Ġex ce
Ġproduct ivity
è Ń
é¦ Ĩ
Ġsound s
Ġidentify ing
] ,
é¾ Ļ
Ġf it
Ġcontribut e
th s
friend ly
e le
if ied
iven ess
ite ly
Ġ X
Ġl ed
åĿ ı
Ġhist or
Ġd at
Ġjour ney
Ġ }
Ġse lect
æ¼ «
Ġcon duct
è¿Ľ ä¸ĢæŃ¥
ç»Ļ æĪĳ
Ġl if
è£ħ ä¿®
ä¸º ä»Ģä¹Ī
äº ¬
Ġn av
Ġwho le
ç ¹ģ
åĨ ľ
æĶ »
Ġb reat
Ġm iss
é¾ Ħ
t t
s w
Ġb ar
è¯· éĹ®
èģĶ ç½ĳ
Ġatt ract
æĤ¨ åı¯ä»¥
O ne
åħħ åĪĨ
r ing
Ġå½ĵ çĦ¶
re am
Ġev ol
Ġs n
ĠE m
m osp
Ġcho ose
v iew
Ġar r
Ġs leep
end ed
æŀ ¶
Ġveh icles
Ġf resh
Ġorganiz ation
è¿Ļ æ®µ
æ± ¤
ĠI nt
Ġcont ext
åı¦ å¤ĸ
Ġoce an
æĦŁ åıĹ
Ġpollut ion
ur b
æī§ è¡Į
erson al
ĠHe alth
ä¼ĺ çĤ¹
Ġatt ention
æľī çĿĢ
é£Ł æĿĲ
Ġer r
çļĦæĿ ¥
çļĦç Ī
èŃ ¦
è· Ł
æĹħ è¡Į
èĴ ľ
çļĦæĢ Ŀ
Ġchat bot
çļĦ éľĢæ±Ĥ
çķ ¥
Ġfeel ing
Ġimplement ed
ç¤¾ åĮº
çļĦ å»ºè®®
æĲ ħ
éĹ »
åıį é¦Ī
çĽ´ æİ¥
æĺ ¥
it able
æĪĳ ä¼ļ
åį ±
èī¯ å¥½
Ġl iving
åıĺ éĩı
ĠB ut
Ġcomple te
Ġtre nds
Ġm akes
ä»Ĭ å¤©
Ġdist ribut
Ġcomm it
Ġat mosp
ä¼ ´
Ġsens ors
Ġs w
æĹł è®º
om en
æĶ¿ åºľ
Ġchall enge
Ġt urn
çĲĨ è®º
p ar
Ġwrit e
ç»ı åħ¸
em ember
é¥ Ń
æĸ¹ ä¾¿
Ġc u
Ġval ue
Ġf und
p ose
è°ĥ æŁ¥
çĿ ¡
Ġcommunic ate
Ġdise ase
Ġrese arc
Ġl ack
arn ing
ĠP ark
çĦ ¦
é«ĺ åº¦
Ġr ather
å® £
çĪ ¶
éĺ ¶
è® ¢
çĥ §
Ġhig her
Ġsumm ary
ĠA ut
çļĦæ ³
Ġe le
is ms
Ġrel i
ä¹Ł ä¼ļ
f ra
åĳĬè¯ī æĪĳ
æĬ ½
Ġsitu ations
Ġmar ine
æĥ³ è¦ģ
in ci
in al
Ġg ain
Ġdiffere nce
æľºåĻ¨ äºº
æµģ ç¨ĭ
ĠC hat
ç½ĳ ç«Ļ
æľ «
Ġcol or
Ġas pect
ç½ Ĺ
ĠE duc
Ġde ploy
Ġbeaut y
æĤ £
ruct ion
it ut
æĿ Ł
è®© æĪĳä»¬
éķ¿ åº¦
ul es
æ¶ī åıĬ
Ġdig ital
Ġexist ing
ĠO r
\_ \_
Ġback ground
çĹ ĩ
æ¯ı å¤©
p ython
Ġfarm ers
Ġcontin u
" :
Ġg iven
å°ı æĹ¶
Ġmom ent
2 00
J ohn
éĿ¢ å¯¹
Ġint ro
Ġtherap y
è¿Ķ åĽŀ
å¹¶ åľ¨
Ġ z
Ġaff ord
ä¸ Ŀ
å® ½
Ġ Ã
ĠN ational
èĥ ¡
Ġexercis e
æĲħ æĭĮ
æĶ¯ ä»ĺ
éĺ³ åħī
è¯ ļ
Ġs ect
ĠS u
å¢ŀ éķ¿
ç¾İ ä¸½
Ġw a
ä»¥ä¸ĭæĺ¯ ä¸ĢäºĽ
èĽĭ ç³ķ
Ġ ill
æ¸ħ æĻ
et ry
æ¢ ¦
ç¾İ åĽ½
ä» į
one y
Ġecosystem s
æĮĩ å¯¼
d ef
9 9
æŁ Ķ
pp ed
Ġlim it
çİ ī
Ġacad emic
Ġrestaur ants
Ġhe ad
ä¿¡ ä»»
ast ers
å² ģ
ak ers
1 4
A s
æł ¡
é«ĺ æķĪ
ph as
y n
ç¨ĭ åº¦
è¾ £
ä¸Ĭ éĿ¢
å®¶ å±ħ
ter m
ç¾İ é£Ł
Ġo vers
å® ĺ
Ġind ic
ĠY our
S t
å½¢ è±¡
è´ ¡
åº Ĭ
ĠS c
ag ra
çľŁ æŃ£
o int
id s
are nt
éĵ ¶
èģ Ĭ
Ġreg ular
ä¼ĺ ç§Ģ
Ġcol le
çĸ ĳ
Ġsub ject
Ġgreat er
Ġst ore
åŁ¹ è®Ń
Ġim ag
Ġan sw
ä½ Ļ
Ġsp ot
åĪĨ åŃĲ
Ġaud ience
p et
Ġv ers
Ġtra il
åĭ ĩ
er ous
Ġguid ance
Ġspe ech
åĵ ²
æĺ¯ çĶ±
è´¡ çĮ®
åĲĪéĢĤ çļĦ
è®¾ æĸ½
ä»ĸ äºº
ens ive
åĢ ¾
al ing
Ġproject s
å ³
Ġt akes
ç» ©
T hat
Ġb ro
iv ed
Ġ &
åĿ Ĳ
place ment
è¿ŀ æİ¥
çļĦç¤ ¾
ĠT ra
Ġrel ax
u fact
éģ į
Ġsur v
åı£ åĳ³
Ġcreat ivity
o f
å¨ ģ
çļĦç ł
Ġbreat h
Ġpl aces
Ġdesc rib
èĭ± è¯Ń
Ġdam age
or ation
ä¸º æĤ¨
if t
Ġc ase
å¹´ é¾Ħ
Ġp ress
çĶ ľ
éĩ İ
æĹħ æ¸¸
Ġt aken
in ed
Ġcon cept
æĴ Ń
Ġinterest ing
è· µ
Ġse a
6 0
Ġf oot
ĠN ame
Ġresearc hers
éĢ ģ
Ġwe e
) ;
çļĦ åħ³éĶ®
ä¼ ½
ele br
å¡ ĳ
W e
ç»ı å¸¸
Ġpopul ations
åħ¬ å¼ı
or n
çĩ ĥ
äºº çĶŁ
1 7
æİ¥ åıĹ
Ġloc ation
Ġin equ
Ġinter vent
Ġinterest ed
Ġdefin itely
Ġassist ance
è¿Ļ ä¸Ģ
åĲĪ åĲĮ
ä¼ĺ åĬ¿
çļĦ å·¥ä½ľ
Ġ1 2
Ġmo v
åģ ı
åŃĺ åĤ¨
us ive
æĹ ı
ï¼ī ï¼Į
Ġg as
Ġinterest s
æ¸ħæĻ °
Ġg ard
çĸ «
Ġs ay
å¤ «
g es
èĲ ¨
ä¸ļ åĬ¡
ä¸ª æĢ§
åĲ ¯
Ġeng agement
Ġb ig
éľĢè¦ģ èĢĥèĻĳ
Ġpr inci
åĳ¨ åĽ´
Ġopportun ity
çģ ¾
èĹ ı
re l
ç¼º çĤ¹
Ġhapp y
åĴĮ åħ¶ä»ĸ
av a
Ġestab lish
é¸¡ èĽĭ
i king
ĠT rans
rast ructure
fore st
èİ· åıĸ
èĦ ļ
in ally
èµ ı
Ġdel icious
Ġresult s
è§Ĥ å¯Ł
å®ŀ è·µ
Ġl ast
Ġpol it
æĢ§ èĥ½
F or
b i
çĽ¸ ä¿¡
ff ee
Ġph r
Ġfore st
ell ing
æµģ è¡Į
at ic
å¤§ å®¶
ĠIn st
æķ° åŃ¦
æī ©
å®Į åħ¨
å¼ķ èµ·
es e
è½¬ æį¢
Ġaffect ed
Ġrobot ics
ç»¼ ä¸Ĭ
Ġpro p
è®© äºº
æ² ³
ä¸Ń æľĢ
Ġaut onomous
Ġha ving
Ġtri p
ur y
Ġbi ased
Ġconsider ations
Ġpartic ular
åį ł
æİ¨ å¹¿
Ġiniti atives
ial s
åĳ³ éģĵ
Ġtreat ments
Ġem phas
çĭ¬çī¹ çļĦ
Ġl ay
æĶ¿ çŃĸ
æĢİ ä¹Ī
ron ic
pl ay
Ġco ok
è¿Ľ åħ¥
è½ ®
Ġvol unte
Ġra in
ĠM on
Ġconsum ption
èĽĭ çĻ½
ĠS oc
å£ ¤
Ġrout ine
Ġimpro ved
T o
äºº çī©
è¯» èĢħ
Ġgo al
å¹¿ åĳĬ
éķ¿ æľŁ
Ġe y
H e
Ġout do
Ġcu is
Ġa way
Ġbo oks
Ġtop ic
å¤§ åĪ©
h ouse
Ġon es
ç§ Ł
' :
æĪ¿ å±ĭ
ç§» åĬ¨
Ġdis asters
est s
ill ing
ç»¿ èī²
åĵ² åŃ¦
æĪĲ åĪĨ
Ġocc ur
ľ ä¼½
åľŁ å£¤
çļĦ ä¸»è¦ģ
çİ° å®ŀ
Ġanim al
é¢Ĩ å¯¼
Ġview s
éĤ ®
æ°§ åĮĸ
ath y
éģĵ å¾·
ç¤¾äº¤ åªĴä½ĵ
ĠP ersonal
Ľ åĽ´
Ġpur ch
Ġcount ry
Ġrem ind
å¯ ¸
Ġr ights
çļĦ çİ¯å¢ĥ
ĠP r
Ġl ine
ib r
é© ¾
Ġm aj
Ġover come
Ġne xt
æīĢ è¿°
è§Ħ å®ļ
Ġinteract ions
Ġconf lic
Ġwh y
ç³» åĪĹ
å° ¼
ib ly
çīĽ å¥¶
Ġrespons es
s es
åŃ¦ ä¼ļ
b ol
Ġstand ards
ul ner
å¯¹è¯Ŀ åĨħå®¹
l ished
çļĦæĢ §
çĶŁæĢģ ç³»ç»Ł
an n
æĥħåĨµ ä¸ĭ
å¯» æ±Ĥ
Ġh old
d en
åį ĥ
Ġment ion
ĠMan y
çĽ´ åĪ°
éģ Ĺ
he l
Ġbelie ve
ar ies
æľī ä¸Ģä¸ª
1 3
Ġatmosp here
Ġm or
æĹ¥ æľŁ
ä¹ ħ
ä½ł å¥½
Ġaddress ing
ĠâĢ ĵ
çļĦåľ° æĸ¹
m ing
Ġcan not
Ġman ufact
Ġp ie
ic ing
Ġstud ies
ç¾İ åĳ³
ĠAmeric an
ĠN LP
Ġacc ording
ms elves
èĦ Ĥ
èĩª ä¿¡
æīĢ éľĢ
Ġthe mselves
Ġremot e
åŁ¹ åħ»
å®ī æİĴ
ä½ł éľĢè¦ģ
Ġreg ard
ir ing
è¯Ĩ åĪ«
Ġart icle
æģ Ĵ
æĢ» çļĦæĿ¥
Ġal ign
æ± ł
ten ance
fact ion
åĬ¨ ä½ľ
çļĦç ©
ç¼ ©
æĢ ¥
Ġ1 00
Ġtest ing
åŃĹ æ¯į
å¹´ è½»
åĪ¶ éĢł
Ġs we
å° º
he ns
æ°´ æŀľ
Ġinf rastructure
èī² å½©
æĢ»çļĦæĿ¥ è¯´
æľī ä»Ģä¹Ī
te xt
è½¦ è¾Ĩ
Ġp ay
ro p
Ċ ĠĠ
Ġcaus ed
Ġcor rect
Ġ ì
èĥ ŀ
ĠM ed
ç²¾ ç¥ŀ
æ°ĶåĢĻ åıĺåĮĸ
ĠR ed
äºĴ èģĶç½ĳ
Ġeng age
åĪĨ ä¸º
ĠD ata
Ġful l
en c
éĩį æĸ°
æŃ£ç¡® çļĦ
çļĦæ° Ķ
åıĮ æĸ¹
Ġcom es
åı¤ ä»£
æŁĲ äºĽ
åĳĪ çİ°
Ġto day
ag ed
æĪĳ åı¯ä»¥
æĹ¥ å¸¸
æ» ĳ
Ġcl in
Ġ \
Ġo bs
Ġart ificial
Ġexce ll
çļĦç ¬
all s
Ġprodu ce
ĠD es
os s
è¹ Ī
Ġdra w
Ġlet ter
Ġadv ice
Ġhigh ly
çĬ ¯
ç»¼ä¸Ĭ æīĢè¿°
æ»¡ æĦı
Ġprinci ples
èĮ Ħ
Ġfeel ings
çļĦæ ´
Ġh om
Ġf ail
Ġcro p
å§ ľ
Ġquest ion
Ġdis abilities
èĪŀ è¹Ī
Ġimp lications
r al
Ġs ing
4 0
Ġfam il
Ġgovern ments
Ġrec ord
å½¢ çĬ¶
Ġbe gin
is es
çļĦæĥ ³
ach ine
è° ±
Ġv ulner
Ġpro per
Ġovers ight
è´Ł éĿ¢
Ġem ail
Ġnew s
Ġexpl oring
Ġf avor
æ¥ ¼
å® ľ
Ġun ivers
å·® å¼Ĥ
ï¼ī ãĢĤ
è§£åĨ³ éĹ®é¢ĺ
Ġfam ous
g n
Ġmess age
at itude
Ġc ra
Ġco ver
æ·± åĪ»
åı¯ä»¥ éĢīæĭ©
çĶŁæ´» ä¸Ń
ç§į ç±»
Ġsm art
on str
ve y
çĶ ²
Ġreg ularly
ĠS m
æĦŁ è§ī
Ġthough t
Ġex h
c ure
ç» ĺ
è®¤ è¯Ĩ
Ġo ld
æĦ ī
ç§° ä¸º
Ġfiel ds
Ġcons ist
ã ģ
ç»Ĩ èĥŀ
Ġh ours
8 0
al king
è§ī å¾Ĺ
ç» Ŀ
ä½ł ä»¬
ĠEng lish
Ġsignificant ly
Ġs ource
Ġan t
Ġeducation al
Ġtas k
Ġhand le
æĲ ľ
ĠS p
Ġcall ed
Ġter ms
æ² ī
Ġw in
duct ion
Ġmod ern
Ġcuis ine
å¥ Ĺ
è§ ¦
olut ely
ç« ¥
p ite
Ġf elt
Ġcomp re
Ġw ond
è¿Ĳ è¡Į
Ġres il
çĽ¸ ä¼¼
éĩĳ èŀį
çĪ± æĥħ
ç¬ Ķ
èĪ ª
è° Ī
åĬĽ çļĦ
æľī æīĢ
æ½ ľ
ul ate
Ġdetect ion
å®£ ä¼ł
Ġmat ter
éĩı åŃĲ
W rite
ç»ĵ åĲĪ
ç»ı è¿ĩ
Ġdevelop ers
è ª
Ġ ---
äºº éĻħ
çŃ ¾
ï¼ļ âĢľ
Ġinnov ative
ãĢĤ âĢĿ
å½ ¼
é¥ ¼
è¿ĩ åº¦
Ġplan et
åħ °
å¸ ģ
æķ ¬
Ġleg al
Ġlo t
æĪĲä¸º äºĨ
i ate
Ġm is
åģĩ è®¾
çļĦ æĸĩç«ł
ĠCom pan
Ġd oc
Ġcare ful
Ġe ver
æĪĳä»¬ å°Ĩ
ä¾ĭ åŃĲ
ä¹ ³
ä½ľ èĢħ
åĲ §
æļ ´
Ġrem ember
çĽ® çļĦ
Ġp ut
å¸¸è§ģ çļĦ
Ġf est
å»º è®¾
å®ŀ çĶ¨
Ġact ive
çª Ĺ
ou th
åİŁ çĲĨ
Ġtry ing
è¿ ·
çĽ¸ åĲĮ
éħĴ åºĹ
An other
æľĢ ä½³
Ġanaly tics
Ġper pet
ip ment
Ġ å¦Ĥæŀľ
è§Ĥ ä¼Ĺ
Ġc elebr
Ġhe av
Ġmed itation
å¤§ æ°Ķ
A nd
ä¸į éĶĻ
Ġwhe ther
s et
Ġdem onstr
ä¸Ģ æ¬¾
æĶ¶ éĽĨ
éĻĲ åĪ¶
Ġ ing
Ġrev olution
çľ ģ
Ġsc ience
çĽ® åīį
Ġthink ing
± ä¹Ĳ
è¯¾ ç¨ĭ
Ġp ack
Ġim age
lo c
Ġst ories
uc k
Ġsatis faction
Ġcollect ion
h o
èµ ŀ
éĿ¢ ä¸´
Ġl a
Ġsym bol
Ġem b
Ġhabit ats
Ġlow er
Ġcontin ues
éľ ĩ
åĵ Ī
ĠT ake
Ġenviron ments
Ġth ree
Ġen c
ĠA cc
æĦı åĳ³
åİ ¨
ch an
ĠH um
Ġtr ue
åĪĩ æĪĲ
s ing
âĢĶ âĢĶ
åĩº æĿ¥
Ġreg ion
Ġinter pre
Ġdiagnos is
é ŀ
Ġdo ing
Ġr un
Ġco ffee
Ġmaj or
Ġmindful ness
Ġafford able
çĻ ¾
Ġdetail ed
éĿŀå¸¸ éĩįè¦ģçļĦ
çļĦæ² ŁéĢļ
çļĦæķ ħ
åĢĴ åħ¥
Ġthem es
Ġnet work
ï¼ī ï¼ļ
ĠUn ited
çļĦæĮ ĩ
ort s
åį« çĶŁ
Ġplan ning
æĥ ł
åī ª
ĠPro v
çļĦ åºĶçĶ¨
Ġp eri
Ġaccount able
çī Ļ
çļĦç ģ
Ġcho ice
ĠC omm
id ents
çļĦ å®īåħ¨
å¹¶ ä¸į
å¤ªéĺ³ ç³»
Ġrece ive
Ġclo se
çļĦæĹ¶ åĢĻ
Ġchang ing
ä»·åĢ¼ è§Ĥ
Ġperpet u
Ġse ason
Ġm en
Ġlearn ed
Ġsitu ation
Ġre place
he ad
è®© æĪĳ
åľ¨ ä¸Ģèµ·
çļĦç© º
éľ ²
Ġen ough
å±ķ çİ°
Ġlead ers
an cing
Ġtemper ature
åı «
Ġ3 0
æĦıåĳ³ çĿĢ
æ± ĩ
ĠGo vern
Ġfocus ed
u ro
Ġsim ple
Ġh iking
æ¯ Ĵ
Ġcompre hens
äº Ī
Ġcreat ed
con d
é¡ µ
ĠW or
è¯ģ æį®
Ġwork place
Ġcharact ers
çļĦ è®¾è®¡
Ġme chan
ĠD is
ç¥ŀ ç§ĺ
å· ŀ
ĠO n
< /
ç§į æ¤į
Ġpat h
Ġlim ited
Ġsol ar
çļĦæ ı
2 2
Ġappreci ate
å¿« ä¹Ĳ
æĦŁ åıĹåĪ°
èĢ Ĺ
m ed
ic ine
Ġnot e
å½ĵ åīį
æĪĳä»¬ åºĶè¯¥
Ġse en
ä¸Ģ åĲį
å°½ åı¯èĥ½
è¿Ĳ ç®Ĺ
è§Ĵ åº¦
Ġequ ipment
Ġsp read
è ¸
è® ¿
åı¥ è¯Ŀ
æĮ ¥
Ġpur pose
è¯· ä½ł
Y our
ari an
ä» ª
Ġperspect ives
åĩº äºĨ
å©ļ ç¤¼
Ġexcell ent
ĠEns uring
Ġre ach
éĺ¶ æ®µ
ä¿Ŀ éļľ
Ġemp athy
ĠM y
çĳ ľä¼½
Ġ ver
ab el
ĠPre dict
Ġmain tenance
è¯Ħ ä»·
Ġ ult
åĴ ¨
o x
åĴ¨ è¯¢
Ġshare d
in a
l ist
Ġoutdo or
Ġthough ts
in ating
éĴ ±
Ġfra me
éĺ ¿
åĪ© æ¶¦
çļĦæİ ¨
åį ļ
Ġrec ent
Ġal tern
are d
= =
Ġro ad
äºĭ é¡¹
g ed
y nt
Ġspe nd
ç½ ª
åıĸ å¾Ĺ
é ¹
l i
æĹ¶ æľŁ
ä¸¥ éĩį
å¿ Ĩ
å© ´
æİ¥ ä¸ĭæĿ¥
ĠEar th
ĠChat bots
Ġset ting
ç¥ Ŀ
éĶĢåĶ® é¢Ŀ
ä¼ ¦
Ġread ing
æİ¢ è®¨
a ign
éŀ ĭ
Ġyou ng
Ġcare er
Ġteac hers
çļĦ è´¨éĩı
å±ŀ äºİ
Ġeas ier
Ġscient ific
ç¾İ åħĥ
Ġsp ir
åĬ ³
çļĦæĶ ¯
r ist
èµĦ äº§
çĶŁ åŃĺ
èĩ³ å°ĳ
å§ ¿
Ġvide o
Ġa im
å®Ŀ å®Ŀ
çĪ¶ æ¯į
________ ________
al ities
Ġb ud
Ġstre et
Ġ æĺ¯
æĸ¹ ç¨ĭ
ä¸ĸ çºª
c hes
ear ch
æĴ °
Ġeng ine
Ġdis placement
ĠRo bots
erv ised
é¡ ¶
ou d
Ġw alk
Ġemerg ency
èģ ĺ
n al
Ġdat as
åĢ º
åĲİ çļĦ
å¾Ī å¥½
Ġmy self
çļĦæī ĭ
Ġus age
Ġsh own
æ® Ĭ
Ġtyp ically
u ly
æĸ° éĹ»
æĽ ¿
Ġor ig
è½» æĿ¾
æĺ¾ ç¤º
Ġado pt
èĤ¡ ç¥¨
Ġp arent
a ps
æĢĿ æĥ³
Ġmarket ing
èĻ «
éĥ¨ éĹ¨
çļĦæķ Ī
Ġcomfort able
åŃ¦ä¹ł åĴĮ
Ġfore cast
ict ion
Ġget ting
Ġtre es
av ing
çļĦ åŁºç¡Ģ
read y
æĸ° é²ľ
go ing
¹ é¥
Ġev idence
¹é¥ ª
ç§ ĭ
æľī å¾Īå¤ļ
éĿ¢ è¯ķ
éģĩ åĪ°
ç»Ļ å®ļ
ir c
åı¯ä»¥ æł¹æį®
é©¾ é©¶
å·§ åħĭ
Ġst unning
çļĦæ ¦Ĥ
æ¡ Į
ĠJ ohn
ul ation
åıĤ èĢĥ
Ġf lex
çĦ¦ èĻĳ
ym akers
Ġfor ms
s h
v al
ĠS o
c o
æİ¨ åĬ¨
èħ ¿
çī¹ æ®Ĭ
Ġen ab
å°Ĩ ä¼ļ
æĶ¯ åĩº
åĿļ æĮģ
çº¢ èī²
Ġopt ion
Ġstart ed
r ation
Ġpo etry
Ġp ort
g en
èª ī
Ġdel iv
çĶ ļ
éĢ »
éĢī é¡¹
Ġg round
å½¼ æŃ¤
an a
çļĦæĹ ¥
åľ¨ çº¿
Ġse cure
Ġ æł¹æį®
é¥® æĸĻ
Ġgr atitude
ç¬¬ ä¸ī
Ġs ong
Ġpoint s
Ġal ready
çļĦçĪ ±
ĠTe chn
Ġreal ity
çı Ń
Ġs ince
Ġpopul ation
y ond
b or
ĠSoc ial
æıĲ åıĸ
å·¥ ç¨ĭ
a ff
äº¤ æĺĵ
Ġwor th
å¡ «
å¨ ±ä¹Ĳ
Ġdo g
ĠAr t
ç¡ ¬
æµ· æ´ĭ
åĨ Ĵ
çī Ī
Ġprogramm ing
ĠAs s
ĠM achine
åĢ¼ å¾Ĺ
è¯· è¾ĵåħ¥
å£° éŁ³
Ġexercis es
åħī çº¿
æ³ķ åĴĮ
Ġfeat ure
e ff
è¿Ľ æŃ¥
å¥³ æĢ§
Ġefficient ly
çļĦæĬĢ æľ¯
Ġgen etic
ä»¤ äºº
è´ ¦
çļĦ äº§åĵģ
åİ ļ
åĴĮ æĸĩåĮĸ
éĻ Ħ
Ġmo b
ç»¼ åĲĪ
t ers
æľī ä¸Ģ
å¦ Ĩ
åį Ī
Ġout side
Ġprop ert
éĤ® ä»¶
ä¸» ä¹ī
Ġpolic y
èĩª èº«
Ġnav igate
Ġst y
çĶµ èĦĳ
Ġab ilities
Ġfac ed
çļĦç ¼
çļĦ å°ı
è ķ
Ġt one
ig ation
åıĤ æķ°
èĽĭçĻ½ è´¨
ä½ Ľ
çĶļ èĩ³
Ġsk in
èĴ ¸
æĭ Ľ
éŃ Ķ
ash ion
Ġing red
æĹ ĭ
Ġcamp aign
Ġm ount
Ġcons id
Ġmus e
n ter
w ater
ä¼ļ è®®
Ġprotect ion
ä¿Ŀ éĻ©
Ġcro ps
og le
éļı æĹ¶
æļ Ĺ
i um
ä¹ ı
Ġdi et
l ies
çĶ¨ æĿ¥
ĠEn coura
æĬ Ĺ
ap an
éĺ² æŃ¢
W ow
çļĦ åŁºæľ¬
å¹³ æĸ¹
Ġst ep
åı¯ éĿł
è¡¨ æĺİ
Ġpredict ions
Ġsym pt
Ġdiagnos es
åħ¬ åĽŃ
Ġsupp ly
Ġprev ious
ç»Ħ åĲĪ
. ,
çļĦ è¿ĩç¨ĭ
æķ ı
s u
ar is
çķ ħ
oc ol
æĲľ ç´¢
it le
éĨ Ĵ
é¡¾ å®¢
éĢ» è¾ĳ
éĿŀå¸¸ éĩįè¦ģ
ĠB i
å·¦ åı³
am m
Ġevery thing
æĺ ł
Ġincre d
Ġpe ace
èľ ľ
Ġmuse um
çĭ¬ ç«ĭ
Ġcomprehens ive
Ġr ates
/ /
Ġra d
åĦ¿ ç«¥
çī¹ èī²
ĠPredict ive
å¼ķ åĬĽ
l er
å° ¤
ic ro
è¡ ¥
Ġdeterm ine
çļĦ åĨħå®¹
Ġcom pl
Ġgreen house
èħ Ĳ
Ġhigh light
Ġpart ners
Ġdo ct
çļĦ ä½¿çĶ¨
æŃĮ æĽ²
æĮĩ åįĹ
ĠA f
æľº æŀĦ
éĢ Ģ
Ġpoem s
å¿ĥ åĴĮ
Ġatt end
çļĦæ¸ ¸
Ġs ide
al es
Ġmention ed
ĠA bs
Ġhistor ical
Ġle ft
ä»¥ä¸ĭ åĩłä¸ª
åıĹ æ¬¢è¿İ
èıľ åĵģ
Ġrem ain
æ ĩ
Ġtour s
ł éģĵ
Ġerr ors
æľº åĪ¶
æ ¦
æĤ£ èĢħ
m ore
Ġexpert s
çļĦçł Ķç©¶
ç»ĵ æĿŁ
Ġwrit ten
çł Ķ
Ġe t
in put
æ°Ķ ä½ĵ
è ļ
æĥ Ĭ
Ġa ge
éĩį å¤į
å¼ ¹
åŃ ¤
Ġsympt oms
Ġbelie f
' d
i ol
Ġ1 8
åħħ è¶³
çı į
force ment
æĸ Ĺ
ª èĮĦ
Ġ1 5
ä¸Ģä¸ª äºº
Ġapp lic
è´ ¥
ä½į äºİ
éĻ¤ äºĨ
= "
ä¸ī è§Ĵ
æĢĿ ç»´
åį ·
Ġf ru
ĠCol labor
Ġpr im
Ġrequire d
Ġw atch
è°ĥ åĳ³
ç»ĵ è®º
on y
Ġgu ide
Ġm ax
ĠC ould
Ġadv ent
ĠO verall
çļĦæĬ ķ
Ġexp er
å ĺ
ic ial
ost er
çļĦ é¢ľèī²
Ġoper ations
éĥ ģ
Ġm oney
le y
c ling
Ġo il
çļ® èĤ¤
Ġg e
Ġb at
ĠP h
Ġsc he
Ġelect ric
v est
Ġch ain
Ġcap abilities
ir d
è¯ģ æĺİ
æľĢ å¥½
iv il
Ġdepend ing
Ġs ave
Ġpract ical
Ġcult ures
çĽ¸åºĶ çļĦ
s y
çļĦç ²
Ġbeh ind
æĹ¶éĹ´ åĴĮ
å¹ ħ
ĠA g
Ġeffect iveness
A d
ĠO f
Ġany thing
å·§åħĭ åĬĽ
Ġm ist
Ġlangu ages
ĠM ake
å «
æ£ ®
ĠCon t
ĠAbs olutely
Ġinvest ment
m at
çļĦæķħ äºĭ
æ¬ §
Ġspe ed
çļĦæ¸ ©
Ġc ities
åĨĻ ä½ľ
Th anks
Ġd ed
åĪĨ éħį
Ġd ark
Ġsupport ing
å¹ ķ
ĠK e
éĽ ¶
Ġsh aring
Ġh ouse
è®¤ çŁ¥
Ġsurround ing
Ġredu ced
Ġf u
Ġst or
Ġab s
T om
c ent
ĠEduc ation
Ġth r
ot t
ĠTh at
Ġhe ar
un g
Ġbe yond
ĠC o
ro om
è¯Ĺ æŃĮ
re me
Ġlit tle
Ġg ames
ä¹ĭ åĲİ
éĥ½ ä¼ļ
è¯Ń éŁ³
ç¬ ĳ
çī¹ å®ļ
ç¬¬ ä¸Ģ
Ġdep ression
Ġinnov ation
ĠF r
Ġcomput er
c an
å³ °
ç¼ĸåĨĻ ä¸Ģä¸ª
Ġintern ational
Ġcan cer
åŃ¦ èĢħ
Ġdisc over
he t
Ġcomp os
Ġrec y
Ġ2 00
åĲ« æľī
çĹ Ľ
ç¼ĵ è§£
Ġfre qu
çĶ ³
ĠM ar
çļĦ éĢīæĭ©
Ġun t
Ġreg ions
Ġop in
ĠGovern ments
æ¶ Ĥ
åĨħ å¿ĥ
ä¸Ĭ æľĢ
ä»į çĦ¶
l ier
æ³ ³
äºĴ çĽ¸
ĠSt ud
az on
Ġar ch
Ġche m
çļĦ èĥ½åĬĽ
çļĦ ä¸Ģä¸ª
Ġa p
Ġre d
Ġw omen
Ġpro te
Ġfind ing
å§ »
éĢĤå½ĵ çļĦ
Ġfor ward
å¯¹ è±¡
Ġwa it
Ġconsid ered
du le
b acks
Ġclin ical
åħ· å¤ĩ
éº ¦
Ġon going
åĨ Ľ
Ġf ar
åĴĮ è°
XX X
Ġpolit ical
Ġcam er
çļĦ è¡Įä¸º
æĦı å¤§åĪ©
Ġapp s
åĩı è½»
Ġread ers
å©ļ å§»
æ° ¸
o res
åħ¨ éĿ¢
ĠAf ric
Ġfavor ite
Ġm ill
Ġd ang
ĠSt ates
åĢ Ł
å¯ ¿
Ġl at
è¿ĩ åİ»
Ġtr uly
åĽŀçŃĶ éĹ®é¢ĺ
Ġco gn
ä» °
ĠJ apan
iz z
çļĦæĿ Ĳ
x x
é¢ĺ çĽ®
ri ption
éĤ£ äºĽ
Ġbud get
Ġv ast
éļĲ ç§ģ
Ġpolic ymakers
è¿ĺ éľĢè¦ģ
å¹¶ æıĲä¾Ľ
Ġswe et
Ġgener al
æ» ¤
Ġbir ds
Ġpl astic
Ċ ĉ
åĪ º
ment al
Ġincl usive
Ġtop ics
Ġs low
ä½ł èĥ½
è¶³å¤Ł çļĦ
è§Ĩ è§ī
w w
Ġ ä½¿çĶ¨
æī ¹
æ¦Ĥ å¿µ
é£Ł çĶ¨
èĢ ³
c ks
Ġfra ud
Ġingred ients
Ġf asc
åĮĹ äº¬
Ġf r
Ġmanufact uring
Ġ ä½ľä¸º
Ġbe ach
é¡ ¿
eri ous
å¤ĸ è§Ĥ
é¢Ħ éĺ²
æĿ¥ èĩª
èĤĮ èĤī
Ġd ays
Ġass ign
Ġadv ant
Ġteam s
é¢ Ĺ
now n
ĠP o
} {
Ġmin ut
it ions
Ġeas ily
ĠB l
n ame
åŃ¦ æł¡
Ġrespons ibility
åıĳ æĮ¥
Ġsens itive
çŃī äºİ
ci ous
Ġs ou
å± ı
Ġr ich
å½ĵ çĦ¶
m an
Ġinterpre t
2 4
Ġshow s
èģĮ åľº
Ġf all
è½ ½
ä¸°å¯Į çļĦ
( '
ä¿® æĶ¹
æĽ´ æį¢
A l
åı¯èĥ½ æĺ¯
Ġr ate
Ġprotect ing
f it
Ġ5 0
Ġmove ment
è§ Ī
Ġemploy ee
Ġdis ord
åĪĽ æĦı
äº§åĵģ çļĦ
æľ Ŀ
ĊĠĠĠĠĠĠĠĠ ĠĠĠĠĠĠĠ
Ġpre d
Ġoffer ing
åįģ åĪĨ
èĢĮ ä¸įæĺ¯
Th ank
æĽ ¾
Ġele ments
ç² Ĵ
Ġcour ses
Ġintegr ated
ĠC ar
agra ph
åŁº åĽł
Ġinst ead
èĦ ±
åı¦ ä¸Ģä¸ª
å¯Ĩ çłģ
Ġallow ed
éĿ¢ åĮħ
çķ ªèĮĦ
åĴĮ åıĳå±ķ
å° ģ
Ġconnect ion
åľ¨ ä¸Ģä¸ª
Ġuse ful
è¯Ń åı¥
åĪĨ å¸ĥ
è¡¨ æ¼Ķ
æľī æĹ¶
çļĦæĹ ħ
çļĦæĢ »
Ġf ashion
èĭ ¦
è¦ģ æ³¨æĦı
çĶŁ ç´ł
Ġnut ri
èĩª è¡Į
çļĦç ĭ
çĲĨè§£ åĴĮ
Ġc at
æľºåĻ¨ åŃ¦ä¹ł
Ġexh ib
åĴĮ æľįåĬ¡
fra c
e pend
Ġimpact ed
Ġ ut
æķ° ç»Ħ
ĠWor ld
Ġansw er
ers e
éª ¨
Ġart ists
åŃ©åŃĲ çļĦ
ä» Ķ
çĻ »
ĠA re
Ġco ol
Ġcogn itive
åĲĦ ä¸ª
l ike
å©´ åĦ¿
åĪĹ åĩº
å¹ »
ron t
å®¶ éķ¿
ç¼º ä¹ı
Ġcy ber
il t
Ġcapt ure
å Ĺ
åľ¨ äºİ
Ġthreat s
åĴĮ ç¤¾ä¼ļ
Ġcell s
æ¸ħ åįķ
ĠV is
æİ ī
Ġh ol
åŃĲ çļĦ
C h
è Ŀ
Ġs aid
Ġd ream
un ch
un e
ĠD on
å®¶ äºº
ç± į
æĦŁ åĴĮ
Ġexperi enced
çļĦéĩįè¦ģ æĢ§
å¼ ĥ
um p
éĺ Ĳ
Ġhabit at
è¢ ĭ
Ġj o
ç®Ģ æ´ģ
Ġb ur
Ġvisit ors
éĽ ħ
çļĦçŁ ¥
Ġent ire
è®² è¿°
äºĨ ä¸ĢäºĽ
åįı ä½ľ
ĠB us
å° ¾
çļĦæķ Ļ
olo g
Ġsign s
Ġspeak er
çļĦ éŁ³ä¹Ĳ
Ġno vel
å±ħ æ°ĳ
çļĦ åıĺåĮĸ
å°½ éĩı
Ġspir it
å®Į ç¾İ
è´ ·
å¿ħè¦ģ çļĦ
ie f
ç¤º ä¾ĭ
Ġd iv
æķ´ æķ°
Ġeconom y
Ġethical ly
éĻ Ī
Ġschool s
Ġnet works
Ġscient ists
Ġle ver
å½¢ çļĦ
ĠA pp
ä¸Ń æĸĩ
bo ok
æĢ» æĺ¯
å°½ ç®¡
Ġfamil ies
ab ly
Ġmaintain ing
E R
å¹´ çļĦ
augh t
Ġexp os
çģ °
Ġinst ance
ç±» ä¼¼
at ures
Ġpress ure
æ¬ £
Ġre nt
çļĦæ ¶
çĥ ¹é¥ª
ot s
af ood
Ġimplement ation
çī©çĲĨ åŃ¦
æĶ» åĩ»
Ġre pl
ä¸¤ ç§į
èĵĿ èī²
å¼º çĥĪ
ĠG od
Ġgrow ing
éļı æľº
éĩĳ å±ŀ
Ġaspect s
ot es
ĠPersonal ized
çļĦ çĽ®æłĩ
Ġout put
çĿ¡ çľł
å² Ľ
æķ ĳ
r ics
éĶħ ä¸Ń
m it
çľĭ èµ·æĿ¥
Ġy iel
å¿ ĺ
ä¼ĳ æģ¯
ä¾ §
åľ¨ å®¶
Ġplay ers
çľŁ å®ŀ
ĠAn aly
el ing
ĠCh rist
å¡ Ķ
qu ality
çļĦçĥ Ń
éģĵ è·¯
Ġbu y
Ġ2 5
åĪĿ åŃ¦èĢħ
éĩį éĩı
è½ ¨
ä¹Ł æľī
ä¸Ģ æł·
å¹¶ å°Ĩ
Ġfit ness
æĿ¥ æºĲ
åķ Ĭ
æĽ´ æĸ°
and s
Ġinc ome
çļĦæ ·
çĵ ¶
éĽ ª
Ġperspect ive
ç¢ İ
æµĭ éĩı
Ġadv oc
Ġc and
éĿ ©
è®º æĸĩ
æı Ĵ
ru pt
Ġc ases
Ġautom ate
èĻļ æĭŁ
" .
id ing
é»Ħ èī²
Ġlimit ations
éĿ¢ ä¸Ĭ
Ġbir d
éĴ ¢
Ġadvance ments
u ild
ä¹ İ
ĠB ar
çļĦæ¯ Ķ
« èĲ¨
è°ĥ èĬĤ
ç»Ļ äºĪ
è¿ Ŀ
èĭ ¹
Ġve gan
ent y
åĪ ļ
äººéĻħ åħ³ç³»
it ect
Ġacc om
Ġgra mm
Ġb ra
çĶµ æ±ł
èĭ¹ æŀľ
Ġtechn ical
èĭ± æĸĩ
åĮ Ļ
Ġ ãĢĬ
è¶ħ è¿ĩ
è´Ł è´£
Ġresil ience
å°¤ åħ¶
Ġb rand
ri ed
og a
æŃ »
ä»Ģä¹Ī æĺ¯
èµĦ éĩĳ
m a
æį ·
A P
Ġear th
Ġv ac
æ¸© æļĸ
Ġit ems
ä»¥ä¸ĭ æĺ¯ä¸Ģä¸ª
å®ŀ æĸ½
åį ĸ
Ġh ost
Ġunt il
Ġext reme
é£ŀ è¡Į
ĠHum an
urb an
çļĦ åĢ¼
he nt
éĢīæĭ© éĢĤåĲĪ
Ġult imately
åľ° æĸ¹
Ġro om
éĹ Ń
Ġrequire ments
Ġcomb ination
Ġdoc ument
ĠG reat
åıĺå¾Ĺ æĽ´åĬł
Ġc irc
èĬĤ å¥ı
Ġstreng th
Ġ ice
æ¸ łéģĵ
Ġphot os
land s
Ġab ove
C on
am p
è¾ĥ é«ĺ
çļĦæĦı ä¹ī
åĽłä¸º å®ĥ
ĠAd d
Ġsh ap
Ġd ial
Ġinst itut
pon s
æģ Ĳ
è§Ħ å¾ĭ
act ive
æ¡ £
į çī©
çļĦæ ±
çĪ± å¥½
åĳ¨ æľŁ
Ġag ree
Ġful ly
Ġne igh
ĠR emember
å® «
æĪĲ å°±
è¿Ļ æĺ¯ä¸Ģä¸ª
Ġincreasing ly
åıĳ å¸ĥ
Ġexpert ise
enc ies
æĤ¨ éľĢè¦ģ
çļĦ çī¹çĤ¹
Ġc ode
ĠE thical
eri a
Ġre ly
çŃī æĸ¹å¼ı
am s
å» ¶
Ġland sc
æŃ£ å¸¸
4 5
é ī
Ġincorpor ating
ç»´ çĶŁç´ł
ou n
Ġrevolution ize
sy ch
Ġdeliv ery
çĶ¨ çļĦ
åįı è°ĥ
Ġlo ved
ä¸į è¶³
Ġin se
éī ´
Ġv iol
cis ion
Ġb rain
ĠComm un
Ġbl ack
æľī æľº
éº »
æľĢ é«ĺ
ĠCons ider
ĠAm azon
Ġexc iting
Ġ â
æľīæķĪ åľ°
ĠS ystem
å¥ ¥
å¼ ±
æ¶ µ
Ġenab ling
åħ¬ éĩĮ
åĲĪ çī©
Ġcont act
çĥ¤ ç®±
ol ving
çĶµ åĻ¨
ç¾İ å¥½
è´ Ŀ
Ġen able
Ġbuild ings
in ary
b re
æ·± åº¦
Ġcont ain
æĽ´ å®¹æĺĵ
Ġsty les
I D
çļĦç¬ ¬
æĹ ¢
Ġe th
å¦ Ļ
çļĦæ´ »
åŃ£ èĬĤ
bi ased
éļ Ķ
Ġt ax
ä¼ĺ æĥł
st ac
ist ance
ar a
ĠC he
æ´ ¾
ĠA t
éļ¾ ä»¥
l s
äº ¿
åıĬ åħ¶
Ġaccess ibility
å¸¸ å¸¸
åį± éĻ©
è¿Ļ ç¯ĩ
å¼Ģ æĶ¾
èĭ ı
Ġac cept
Ġto uch
at ural
ĠAn other
çĨ Ĭ
E x
åĨ Į
Ġun biased
Ġmov ie
Ġinteract ion
å®Į æķ´
èı Į
å¾Ģ å¾Ģ
å°± åı¯ä»¥
Ġm ix
åĩ ī
Ġec o
Ġse afood
æĭ į
Ġpar agraph
Ġincorpor ate
Ġbec ame
éķ ľ
end er
åįķ ä½į
ä¸į è¿ĩ
cis e
çļĦæŃ ¥
Ġco p
è½¬ åĮĸ
Ġs ize
Ġbe comes
Ġchem ical
çļĦ è¿ĩç¨ĭä¸Ń
å®Į åĸĦ
èį¯ çī©
Ģ æľī
å¤ļ çļĦ
èĥ½åĬĽ åĴĮ
æ¡Ī ä»¶
çļĦæĬĢ èĥ½
åĴĮè° Ĳ
æĭ ¼
Ġexpl oration
Ġp an
Ġst ruct
Ġinteract ive
re ate
éĺ µ
æģ ĭ
Ġres ource
å¥¹ çļĦ
ver t
ä¼ł éĢĴ
ub lic
Ġconvers ation
Ġra ise
Ġcol ors
çİ° éĩĳ
ĠG ood
ç»´ æĮģ
æģ ¶
Ġminut es
Ġserv es
åĲ¸ æĶ¶
é ½
h ile
ren ch
çļĦæ¸¸ æĪı
ĠBus iness
ert s
Ġorgan ic
çģµ æ´»
Ġ urban
Ġreli able
è¯Ń æ³ķ
çļĦç ½
ä¸įæĸŃ åľ°
ç»Ł è®¡
Ġcon vey
åĲį åŃĹ
ici ans
ä¹¦ ç±į
çļĦ äºĭæĥħ
] .
è¿Ĳ çĶ¨
Ġnum erous
Ġsuggest s
l t
ç§ĳåŃ¦ å®¶
æ¡ Ĩ
èĢģ å¸Ī
åıª æĺ¯
çļĦ ä½įç½®
Ġminim ize
èĩ³ åħ³
èĳĹåĲį çļĦ
éģµ å®Ī
è§Ħ èĮĥ
â Ħ
Ġth ing
Ġs av
ç¡® è®¤
Ġinflu ence
eren ce
æĸĩåĮĸ åĴĮ
èĳ ¡
Ġident ity
èĦĤ èĤ
åĴĮ æĶ¯æĮģ
èĦĤèĤ ª
C ould
åĬ¨ åĬĽ
çĻ½ èī²
çļĦ åģ¥åº·
t ings
ç±» åĪ«
æĤ ¦
Ġde ath
Ġ/ /
è¿Ļ å°Ĩ
ĠP at
æľ µ
Ġavail ability
ĠM ay
Ġfarm ing
æ¸ħ æ´Ĺ
Ġexc ited
Ġimag ery
Ġpart s
Ġgard en
çļĦ è¯Ŀ
ĠP ract
ï¼Į âĢľ
Ġun s
çŁ ©
åİŁ åŃĲ
Y ou
æĺ¯ ä¸ŃåĽ½
et imes
æĥħ èĬĤ
Ġshow c
ir ation
èĲ Ħ
èĳ¡ èĲĦ
Ġear lier
Ġpriv ate
u ments
Ġfish ing
Ġread er
Ġt ut
çļĦ åİŁåĽł
Ġsk y
Ġdeploy ment
çļĦæĬķ èµĦ
äºº ä½ĵ
omm od
Ġh on
é¡º åºı
äºĭ å®ŀ
å² ©
çļĦæĿĲ æĸĻ
ver ty
Ġå½ĵçĦ¶ åı¯ä»¥
å£ ģ
åİ¨ æĪ¿
Ġperpetu ate
Ġpo verty
ĠC ent
ä¹ Ļ
Ġfasc inating
Ġexp and
Ġdec re
Ġapplic ation
Ġlat est
åĪ Ģ
ri ef
çļĦ ä¸»é¢ĺ
od iversity
Ġlo g
ç´ «
al ent
è¯Ħ è®º
Ġinequ ality
2 3
çļĦæ ¼
urther more
æĶ¾ ç½®
g ment
ass ion
ä¸Ģ åıª
æī °
èĢĮ è¨Ģ
as ive
æħ §
Ġmeas ure
æķ°æį® åĪĨæŀĲ
l ines
7 0
åĩº èī²
Ġse em
Ġstate ment
å® Ĺ
æĭ ¿
æķ°æį® éĽĨ
ĠM e
åıĺ æĪĲ
ĠA v
in ks
åĨ² çªģ
am ple
Ġob stac
Ġdoct ors
èį £
n ces
Ġs erve
Ġs erious
å§ Ĩ
Ġm ass
ve re
Ġre in
è¡£ æľį
Ġdiffere nces
Ġpl enty
Ġcent er
act ions
å¹² åĩĢ
Ġarch itect
9 0
ĠLe arning
åĮĸ åĴĮ
Ġthem e
ç¥ŀ ç»ı
Ġcolle ge
Ġro ck
Ġstor age
Ġt ai
Ġco ast
D o
ç¢ Ĺ
æ· ¡
çļĦ åİĨåı²
Ġal loc
Ġindic ate
r ict
æ± ī
Ġb it
Ġaddress ed
å¦ Ī
ä¸İ åħ¶ä»ĸ
æ¸¸ æ³³
Ġlif est
ograph y
æĸ° åŀĭ
Ġ :
Ġclass ic
ĠC al
Ġt ur
èĸ Ħ
ç» ķ
çļĦæ ¤
å¯¹ æīĭ
Ġw ent
åħ Ń
Ġconcer n
Ġmem ory
ĠCompan ies
Ġc ivil
Ġsche dule
æ¨¡ æĭŁ
Ġmeth od
Ġpass ion
çīĽ èĤī
åĲ¬ èµ·æĿ¥
åı¯æĮģç»Ń åıĳå±ķ
m on
ç Ĵ
çļĦ ç»ĵæŀľ
åĲĮ æł·
æŁ¥ çľĭ
æ» ©
Ġs and
Ġexper iment
éĩį è§Ĩ
çī© ç§į
ç£ ¨
Ġjust ice
å·¥ èīº
èľ Ĥ
Ġbe coming
ĠA ll
çļĦç² ¾
å¾Ĺ åĩº
Ġobject s
lo red
âĦ ĥ
çļĦçŁ¥ è¯Ĩ
åĶ ±
ĠGo ogle
Ġon ce
å¸¦æĿ¥ äºĨ
æľŁ éĹ´
Ġplay ing
Ġsignific ance
æĪĳ è®¤ä¸º
Ġfoot print
Ġm al
æĺİ æĺ¾
çĵ ľ
è´ ´
Ġbe gan
ä¸Ģ é¦ĸ
è¿ĩ äºİ
çĪ Ĩ
åħį çĸ«
How ever
Ġaut hent
om an
Ġcap able
æĳ Ĩ
çļĦæĥħåĨµ ä¸ĭ
çļĦ é£Łçī©
ç¬¬ ä¸Ģä¸ª
s er
Ġhe at
è¯ Ĭ
åĸ Ŀ
ĠAl so
Ġ ir
Ġguid ed
ac ed
Ġmeaning ful
çļĦç «
Ġfil m
Ġbelief s
Ġf ire
åĨį æ¬¡
Ġsee k
Ġf ert
Ġtai lored
çļĦæł ¸
å°± ä¼ļ
it ary
ĠP art
erv ed
Ġimprove ment
Ġc ard
å¾Ī é«ĺ
åİ ĺ
Ġd ance
ĠH ave
Ġwork ed
ĠG u
Ġwond er
åĸľ å¥½
ĠHealth care
ä¼ ¸
d ate
çģ¾ å®³
æľīæķĪ çļĦ
çļĦæĶ ¶
es c
åľº åĲĪ
ä¸Ģ ç»Ħ
Ġ Â
åĵģ ç§į
åĮº åĿĹ
Ġaltern ative
ä¸ĭéĿ¢ æĺ¯
Ġclass es
åĴĮ æ°´
ĠN or
èĥ¡ æ¤Ĵ
Ġind epend
ĠIn cre
Ġpotential ly
J ava
èĢĮ æĺ¯
Ġm ig
Ġprom pt
rough t
iss ion
çļĦæĦŁ è§ī
Ġs olution
Ġcar s
è¯į æ±ĩ
Ġsing le
æİĴ æĶ¾
Ġbro ad
Ġris e
$ $
æĹ ¨
Ġpurch ase
èĲ Ŀ
çļĦæī Ģæľī
Ġmechan isms
åĪ ·
ç»Ļ å®ļçļĦ
çĲĨ å¿µ
Ġre ef
éĵ¶ è¡Į
c he
å¿ĥ æĢģ
ar ah
è¦ Ĩ
Ġbenef icial
Ġte aching
Ġwe ar
Ġ2 4
Ġimp ress
Ġmo od
èĤ ´
éģµ å¾ª
æģĴ æĺŁ
åį §
çļĦç Ĭ
ĠQ u
æ° ¢
ä¼ł æĴŃ
Ġlo st
ĠSu pport
i pped
å¤§éĩı çļĦ
Ġconst ant
Ġbas ic
Ġmotiv ated
Ġf a
Ġ ä¸į
æ°´ ä¸Ń
Ġbi odiversity
ĠCl imate
m y
Ġapp ear
Ġsc hed
Ġvulner able
çļĦæµ ·
åľº æīĢ
ĠC ity
Ġcareful ly
æ¯ «
åľ° çĤ¹
Ġsp orts
æĪĸ åħ¶ä»ĸ
Ġj oy
è®¤ çľŁ
al se
Ġscen e
Ġacc ommod
çļĦæĢ ģ
Ġplay er
çĶµ è¯Ŀ
lo ad
il le
è¿ ¹
åĴĮ å»ºè®®
i ation
çļĦæł ĩ
a im
æĺ¯ æľĢ
ä¸ľ è¥¿
æ£® æŀĹ
Ġl ines
é¸¡ èĤī
ĠRes earch
Ġlar ger
ĠĠĠĠĠĠĠĠ ĠĠĠ
Ġ ----
Ġaccurate ly
Ġcre ation
Ġintervent ion
Ġus ually
æĺĵ äºİ
çļĦ è¿ĲåĬ¨
çļĦ åħ³ç³»
Ġh ar
Ġv ary
Ġto wn
äºĭ çī©
èĬ Ŀ
æ½ ®
word s
åŃ¤ çĭ¬
å¾Ĺ åĪ°äºĨ
d le
D NA
Ġstat us
Ġto ok
uro pe
Ġdisc overy
é» ĺ
Ġstrugg ling
im port
çļĦæĥħ ç»ª
Ġwebs ites
: //
à ¤
Ġcondit ion
B ut
ä¿¡ ä»°
Ġtemper atures
i ar
Ġb le
å¤ĩ çĶ¨
çļĦæ ĭ
çĽ Ĩ
åĪ© çĽĬ
çı ł
Ġsh ape
è½¬æį¢ ä¸º
æŁ ľ
Ġtransl ation
ä¸» äºº
Ġinst ruct
è§Ħ æ¨¡
éĩĬ æĶ¾
ra ce
o on
Ġdis h
ant ic
æıĲ ç¤º
Ġman aging
in ate
ä»¥ä¸ĭ æĺ¯ä¸Ģ
ä¸Ģ å®ļçļĦ
åı¯ä»¥ å°Ĩ
çļĦæķ° éĩı
Ġh un
æµ ĩ
Ġ ë
Ġpres ence
Ġc row
Ġwh ite
u x
Â °
å¤© ä½ĵ
å ´
åİŁ åĪĻ
ç¿»è¯ĳ æĪĲ
erv ing
Ġt ree
id ge
en cing
éľĢæ±Ĥ åĴĮ
çļĦ ä¸Ģç§į
åı¯ä»¥ æıĲé«ĺ
Ġreview s
æ¬£ èµı
èĩªçĦ¶ è¯Ńè¨Ģ
i ance
çĤ ¸
it ch
up ervised
Ġselect ion
ĠÃ Ĺ
ĠP e
Ġintro du
Ġperi od
Ġv oc
Ġlong er
Ġe at
å¥ ĭ
ä¼ĺ è´¨
Ġ é¦ĸåħĪ
Ġd ow
d is
Ġle aves
å¤§ åŀĭ
è¾ĥ ä¸º
Ġw ine
ä½¿ åħ¶
çĬ ¬
Ġblo od
Ġrepresent ative
åĬł çĥŃ
èµ ĸ
çļĦæĶ¯ æĮģ
o per
é¦ ¨
Ġent ertain
Ġp ict
Ġparent s
Ġcaus ing
çŃī åĽłç´ł
if ically
çļĦæ´» åĬ¨
nd er
Ġplay ed
ĠM ark
Ġwrit ers
ä¸Ĭ è¿°
å°º å¯¸
ĠS im
èİ ĵ
çļĦæĻ º
Ġt erm
ĠIm pro
çļĦçľ Ł
æĭ ĵ
Ġveget arian
Ġs ets
æĽ´ ä¸º
ic ated
èĩªè¡Į è½¦
æĬĢæľ¯ çļĦ
éĩĳ é¢Ŀ
åĮĸ åĲĪçī©
Ġwee k
S c
m ar
Ġs eries
Ġlaw s
æīĵ å¼Ģ
Ġequ itable
æĻ¯ çĤ¹
ä¹ĭ å¤Ħ
æħ¢ æħ¢
æīĭ æ®µ
åº Ł
çĽ ¾
Ġfe ar
æĪ· å¤ĸ
Ġrel ief
Ġfl avor
æĹ¶ ä»£
Ġdr ink
ĠTechn ology
çĲĨ è´¢
Ġtechn ique
å¤§ åŃ¦
å¸ĥ å±Ģ
Ġtrail s
bo ard
Ġsat ell
çļĦç¤¾ ä¼ļ
ĠF inally
n a
Ġph one
ç£ ģ
éĿŀå¸¸ æĦŁè°¢
Ġsc reen
åį³ ä½¿
èģĬ å¤©
Ġcomp on
Ġse cond
Ġwrit er
Ġrout es
Ġlifest yle
Ġfood s
ĠCollabor ation
eng th
çĩ ¥
ib ilities
æ³¨æĦı äºĭé¡¹
yn am
èº«ä½ĵ åģ¥åº·
ĠP ol
åģļ å¥½
Ġw alking
Ġpie ce
Ġstat istics
Ġpro pos
è¾£ æ¤Ĵ
çĮ ľ
å±ı å¹ķ
åı¯ä»¥å¸®åĬ© ä½ł
æ¹ ĸ
el low
å¤± åİ»
Ġveget ables
çļĦ é£İéĻ©
Ġl ik
æ°Ķ æ¸©
åĿ ¦
é»ĳ èī²
ĠF rench
Ġcre dit
ç±»åŀĭ çļĦ
éĢı æĺİ
åĽ½ éĻħ
Ġpub lished
åĪĽå»º ä¸Ģä¸ª
Ġpart ner
ynt hes
çİ Ľ
ç¾¤ ä½ĵ
åĲĮ äºĭ
èį ·
Ġt im
éĺ »
Ġhow ever
Ġmark ets
ä¹Ł éľĢè¦ģ
c hed
Ġme al
éĿ¢ ç²ī
è®© ä½ł
r ight
Ġincl usion
äºº æ°ĳ
çļĦæĮ ĳæĪĺ
Ġliter ature
ĠPr iv
èī ¾
Ġpredict ive
av ors
Ġlist ening
Ġintellig ent
Ġneigh bor
ĠE urope
Ġret ail
Ġrecord s
og ue
Ġb ike
pp er
æ¯ı æ¬¡
ä¾ µ
Ġpos ition
ate ful
åħ «
ĠEn ergy
Ġphr ase
åĨ ¬
æŁ¥ è¯¢
æľį è£ħ
æĺ¯ å¤ļå°ĳ
æ© Ļ
ä½ĵ éĩį
åĪ° è¾¾
Ġtr ials
Ġh ur
Ġde b
æĿ ĳ
Ġsho pping
i lo
en ed
çļĦæŃ¥ éª¤
æĢ Ģ
ä¾Ľ åºĶ
éĢ ĥ
20 21
Ġ åĴĮ
åĮºåĿĹ éĵ¾
Ġne ural
ĠBi as
Ġc it
Ġsoc iet
å¯Ĩ åº¦
çº ł
æ ª
çļĦç ¥
ĠO ur
o es
ct ic
ur ance
Ġfair ness
Ġstruct ures
Ġsumm er
ĠS outh
å¸® æĪĳ
1 000
wor ld
Ġsal es
äºĨ è®¸å¤ļ
å§¿ åĬ¿
è´ ¾
è° ·
èĬĤ çĤ¹
åĮ» åŃ¦
æīĵ åį°
Ġte a
æ³ķ è§Ħ
qu ir
ĠEncoura ge
åıį æĺł
éģį åİĨ
Ġcon gest
it ate
æĦı è§ģ
Ġgener ations
åŃ©åŃĲ ä»¬
å£ ®
æķ´ çĲĨ
Ġevol ve
æĬ «èĲ¨
Ġinvest ing
ĠProv ide
e curity
Ġwe ight
çļĦæ ĳ
A R
Ġcollabor ative
æ´ĭ èĳ±
è¢« ç§°ä¸º
Ġcl im
çļĦæ¯ ı
æķ° çļĦ
Ġs l
ä¸ĬéĿ¢ çļĦéĹ®é¢ĺ
Ġaccording ly
c ol
ĠU S
Ġfun ct
Ġme at
The re
Ġre ason
åĽŀçŃĶ ä¸ĬéĿ¢çļĦéĹ®é¢ĺ
æĭĽ èģĺ
Ġmem ories
æľ Ĺ
å¿ĥçĲĨ åŃ¦
Ġcurrent ly
u ff
ĠH er
çĶ¨æĪ· è¾ĵåħ¥
çļĦæ¼ Ķ
å¦ »
ç¿» çĤĴ
G B
å¥ĸ åĬ±
Ġt alk
Ġb ound
un ction
3 3
ines e
Ġbackground s
Ġunivers e
æĿ¥ å®ŀçİ°
æµ ®
çļĦæ ŀ
çŃī éĹ®é¢ĺ
è´· æ¬¾
èĪ ¹
éĢĤ çĶ¨äºİ
çļĦ æľįåĬ¡
Ġcampaign s
Ġsent iment
P h
ru e
å¼ķ å¯¼
æ£ Ĵ
bers ecurity
Ġro les
ĠM use
åĢ į
Ġregard less
å®¶åºŃ æĪĲåĳĺ
Ġm id
çŃī å¾ħ
æ¶īåıĬ åĪ°
Ġmax im
è¡ Ĺ
æľĢ æĸ°
\_\_ \_\_
L E
Ġh ous
å·¥ ä¸ļ
æ¤ ħ
Ġg ender
on ic
Ġc ut
Ġf ast
ĠL et
Ġsu p
Ġf ig
çº ¹
çĥ Ł
è±Ĩ èħĲ
Ġvers ion
² Į
æ® ĸ
èıľ åįķ
Ġhand s
Ġl abor
ĠS w
çĮ ª
Ġrespons ibly
å§ĭ ç»Ī
åģ¥åº· çļĦ
Ġcommit ment
ed s
åĵª ä¸ª
Ġparticip ate
ä¼ļ å¯¼èĩ´
Ġimm ers
ur s
æŁĲ ä¸ª
tt ps
å¡ĳ æĸĻ
Ġs ess
è¢« è®¤ä¸º
Ġbar ri
ic y
Ġhe ld
çĶ¨ åĵģ
Ġle ast
le c
åħħæ»¡ äºĨ
Ġdr ive
åĸ ·
ä¼¤ å®³
çļĦæķĪ æŀľ
æĹ¥ æľ¬
åĬŀ åħ¬
Ġh osp
ĠS et
Ġtour ism
| --------
é¼ ł
ĠM ount
ĠY ork
Ġp and
as ons
è¯ º
He y
g ener
å¿ ½
Ġin j
Ġinc ent
het ic
ä» ¿
est ic
å®ļ å¾ĭ
åħĭ æľį
ĠN atural
çļĦæ³ ķ
åı¯ä»¥ ä¸º
ĠOr gan
ä¸¥ æł¼
è¾ĵåĩº ç»ĵæŀľ
ent al
ĠTh ank
æķ´ ä½ĵ
çł´ åĿı
ad es
Ġey es
Ġgr ateful
Ġyiel ds
Ġ çļĦ
è¿Ļ æ¬¾
è·ĳ æŃ¥
Ġw ar
ĠP ython
p id
en ue
æĸ¹éĿ¢ çļĦ
Ġconst ruction
çļĦæµ ģ
ç¼ĸåĨĻ ä¸Ģä»½
ä¸ ģ
ä½ĵ çİ°
è®° å¿Ĩ
åĽ¢éĺŁ æĪĲåĳĺ
æ° ĽåĽ´
æĥ³ æ³ķ
Ġconflic t
åĬĽ åŃ¦
Ľ çĽ¾
æī ¬
ore over
è¢« åĳĬ
çķĻ ä¸ĭ
Ġ1 6
Ġcongest ion
Ġgramm ar
åĴĮ å®īåħ¨
æķ° ä¸º
çĽĳ æµĭ
c m
Ġan c
è¶³ çĲĥ
Ġdistribut ion
éĽĨ ä¸Ń
Ġill ustr
çļĦæ ¬
ä¹ĭ å¤ĸ
åľ°çĲĥ çļĦ
m ost
Ġaffect s
Ġconduct ed
ed iate
Ġprotect ed
Ġpr ices
èĥ ģ
è¸ ª
Ġframe works
çļĦæŃ £
angu age
Ġp et
Ġaccom pl
a e
åĩº è¡Į
åħ¬åħ± äº¤éĢļ
Ġra ises
åľ° éĿ¢
ĠĠĠĠĠĠĠĠ Ġ
æĦ¿ æĦı
éªĮ è¯ģ
Ġtarget ed
Ġfund ing
çļĦæ¶ Ī
çŃī é¢ĨåŁŁ
ì Ŀ
Ġj ud
åĪº æ¿Ģ
çİ »
Ġconsist ent
Ġwill ing
Ġdeep er
Ġinstitut ions
C l
åĲ¦ åĪĻ
Ġevalu ate
st er
ig en
åĽº å®ļ
æĵ ¦
Ġdistribut ed
åĮ ¹
ä¹ĭéĹ´çļĦ åħ³ç³»
æľªæĿ¥ çļĦ
Ġf aster
Ġserv ed
Ġdesc ript
çŁ¥ åĲį
æª ¬
Ġredu ction
åĢ¾ åĲ¬
å¨ģ èĥģ
# #
ï¼ļ ")
Ġpro active
ł æª¬
çļĦ å¥½
è· ¨
åįı è®®
è®¿ éĹ®
åĪ¶ åº¦
ow s
éĹ®é¢ĺ çļĦ
Ġcook ing
ĠAcc ording
Ġdid n
æĺ¯ æĪĳä»¬
Ġde ad
å¤© ç©º
Ġext ra
ific ations
Ġhe ard
æıĲ éĨĴ
çļĦæķ° åŃĹ
åł µ
Ġ >
Ġal one
å¿ Ļ
Ġfin ance
åı¦ ä¸Ģ
Ġ --------
rit ing
ĠV irtual
Ġstart ing
åıĸ åĨ³
Ġsur face
çļĦæł¸ å¿ĥ
åıĸåĨ³ äºİ
Ġclo thing
åİĺ ç±³
æĽ´å¥½åľ° çĲĨè§£
æĶ¶ çĽĬ
èıľ èĤ´
Ġr h
Ċ ĠĠĠĠĠ
Ġemploy ment
çº ·
å·¨ å¤§çļĦ
ens ion
Ġexpl an
ĠN o
Ġprote in
è¡Į é©¶
Ġcor al
ate gor
conom ic
Ġsmall er
Ġcon ven
am ing
äº§çĶŁ äºĨ
Ġful f
çº ¯
çŁ ¿
Ġdescrib e
Ġdisord ers
s pe
Ġcho ices
ä¸º ä¸»
è¯Ńè¨Ģ æ¨¡åŀĭ
il es
ĠIn tern
ĠMuse um
ore d
è®¾è®¡ ä¸Ģä¸ª
æĽ´å¥½åľ° äºĨè§£
éľĢè¦ģ è¿Ľè¡Į
å¹² çĩ¥
Ġcand id
y al
éĻ ·
çĶŁæĪĲ ä¸Ģä¸ª
Ġinflu enced
ç»ı èĲ¥
Ġtrans ition
Ġt able
çĽ¸åħ³ çļĦ
æ°§ æ°Ķ
çļĦæ ģ
Ġm ag
Ġra nd
åĵ º
Ġf illed
r t
æĦī å¿«
åħ·ä½ĵ çļĦ
æĸ ľ
åľ° éľĩ
k nown
Ġs us
ur g
éĩį çĤ¹
çļĦæ¤ įçī©
äº² åŃĲ
åĮĸ å¦Ĩ
Ġmom ents
æĪĲ ç»©
éĹ ²
ä¿Ŀ åħ»
å¯¹ çİ¯å¢ĥ
ĠMon itor
pos es
äººç±» çļĦ
Ġt aste
forest ation
Ġmove ments
Ġins ight
Ġbreak s
Ġd ess
æĺŁ æľŁ
éľĢè¦ģ åľ¨
éķ¿ æĹ¶éĹ´
è¿ ħ
Ġpr ice
Ġachie ving
Ġinst all
Ġover w
Ġconnect ions
å¤ªéĺ³ èĥ½
Ġbl ue
è¦Ĩ çĽĸ
çħ İ
åĲ« ä¹ī
æĿ¥ çľĭ
è¿Ļ éĥ¨
çĶŁæĪĲ ä¸Ģä»½
æ¸© é¦¨
Ġimm ediate
éĺĲ è¿°
Ġmed icine
Ġcomp ared
Ġsu bs
åĪĻ æĺ¯
éĵ º
è ²Į
R emember
ĠB al
Ġc af
æī ®
èĲ¥ éĢł
ĠH is
ä»Ķ ç»Ĩ
å¤ª ç©º
èĢħ çļĦ
Ġ1 3
ä¸ĵ æ³¨
Ġmil itary
$ ï¼Į
p ly
Ġs il
Ġg iving
in come
Ġagricult ural
Ġs now
çļĦç Ŀ
çĿ Ľ
Ġbr ight
çĴ ĥ
Ġan n
åħ³éĶ® è¯į
å°Ĭ æķ¬
çļĦç¼ ĸ
èµ ¢
Ġapp l
ç¬¬äºĮ ä¸ª
ĠO ver
ä¸ª ä½ĵ
um e
ĠL oc
Ġinv ent
æĿ °
ĠP aris
Ġn ational
èº« å¿ĥ
Ġatt acks
row n
Ġv ital
ag er
æ¼ ı
Ġrequ est
Ġdr iving
ĠPriv acy
çĲ ´
ĠC O
ĠĠĠĠĠĠĠĠ ĠĠ
s olving
Ġst aff
è¿Ľè¡Į åĪĨç±»
Ġpref er
Ġblo ck
æĽ´ é«ĺ
ous ly
æķ ¢
åī ©
Ġadd ing
ä¸Ģ å¤©
åº Ĩ
Ġl ate
Ġpur poses
çļĦç½ ĳ
å§ ĵ
Ġy et
çªģ åĩº
Ġharm ful
äº¤ äºĴ
åį ľ
ĠN e
Ġarg ument
Ġintervent ions
Ġoverw hel
Ġbehavi ors
os ing
çļĦæ° ĽåĽ´
at t
çļĦ åĬŁèĥ½
Ġassess ment
Ġexpect ed
å¼º åº¦
éľĢè¦ģæ³¨æĦı çļĦæĺ¯
çļĦ å¤©æ°Ķ
åı¯èĥ½ å¯¼èĩ´
æ¿Ģ åĬ±
æº ¶
Ġlever aging
æĮ Ĥ
Ġsee king
Ġneighbor hood
åĲį ä¸º
Ġrand om
Ġrel ig
C om
2 8
è®¢ åįķ
æĢ» ä½ĵ
éĨ ĭ
Ġe ating
äºº åı£
Ġis ol
æıĲä¾Ľ ä¸ĢäºĽ
Ġcontinu ed
æŁ¥ æī¾
' )
Ġy oga
æľĢ éĩįè¦ģçļĦ
Ġmet ap
Ġpract icing
Ġfest ival
ä½ĵ èĤ²
ç´ ¯
ç½ ļ
ĠE st
Ġresult ing
å¤± è´¥
ul l
æľ¬ ä¹¦
æī £
Ġd ynam
por ary
è´¨ åĴĮ
æŁ łæª¬
Ġmon ths
åł Ĥ
Ġobstac les
Ġdraw backs
çļĦçĬ ¶
el i
am ed
èģĮ ä½į
çļĦç©º éĹ´
Ġn arr
Ġpass age
s um
çļĦ ä»·æł¼
ic ate
o ke
è¿Ļ æ¬¡
is ion
è¡¨çİ° åĩº
Ġp ush
Ġdial ogue
çİ© åħ·
Ġre put
è½» è½»
ir m
ä¸ĭ éĻį
åī ²
Ġless ons
Ġcollect ed
å¤įæĿĤ çļĦ
Ġprepare d
Ġfl avors
Ġexplo res
çİ» çĴĥ
ce ed
ä½ĵ ç§¯
å®ĥ æĺ¯
í ķ
her n
ĠT ry
æİĴ åĪĹ
c lusion
è¾ ħ
å¼ ¦
èĭ ¥
in ated
g ar
Ġm icro
Ġinsp ired
æµª æ¼«
çĲĥ åĳĺ
æīĵ éĢł
Ġhot el
çļĦæĥ³ æ³ķ
ect ion
Ġcr is
Ġut il
ĠP rom
çº ¤
Ġconf idence
å¿ ł
Ġr ide
å°ı çļĦ
Ġgra du
ä¼ĺç§Ģ çļĦ
Ġtrack ing
éļľ ç¢
Ġdemonstr ate
ħ åĬĽ
è½¨ éģĵ
iz ations
dit ions
Ġsu ff
ĠM us
z e
Ġd om
int ended
Ġregul atory
åĵº ä¹³
ç§ Ĵ
Ġhab its
Ġdirect ly
Ġc atch
Ġv ibr
çĪ ¬
èĦ ı
Ġl abel
Ġac id
æ¦ Ħ
èīºæľ¯ å®¶
ç¯ ®
ĠTh rough
ä»ĸä»¬ åľ¨
Ħ æ¦Ħ
æľī ä¸ĢäºĽ
qu e
æīĢ åľ¨
åĨľ ä¸ļ
åīį å¾Ģ
f er
ig ating
åħ± äº«
Ġheav ily
æľŁ æľĽ
ãĢĭ ãĢģ
èĲĿ åįľ
ç´§ å¼ł
åĭĩ æ°Ķ
å¤ı åŃ£
o oth
Ġloc ations
åĪ« äºº
Ġstrugg le
Ġ æĤ¨
Ġoptim izing
è¿Ļ æĺ¯ä¸Ģ
Ġpropert ies
Ġcar ry
Ġmen u
Ġpred ators
Ġfac ing
Ġintern et
Ġr ules
ange red
å¼º å¤§
è§Ĩ é¢ĳ
Ġgra nd
å¼Ĥ å¸¸
è± ª
âĢĿ ãĢģ
Ġsuccessful ly
ä»¥ä¸ĭåĩłä¸ª æĸ¹éĿ¢
Ġproper ly
---------------- ----------------
æĲħæĭĮ åĿĩåĮĢ
rel ated
Ġf ight
Ġwant ed
I s
Ġf ive
æĪĲ æŀľ
å¤§ å¤ļ
l in
èĬ± åĽŃ
Ġd ou
Ġadvent ure
ag s
æ¯Ķ ä¾ĭ
çļĦæı Ĳ
r or
ĠAdd ress
z y
æ ¾
éĿ¢ çļĦ
ĠD r
Ġsumm ar
Ġey e
en n
æĺ¯åĲ¦ æľī
Ġcaus es
Ġad ult
ä¼ł è¾¾
èĥ½ åĲ¦
rain ing
ĠKe ep
Ġd ate
ç»´ ä¿®
äºĮ æ°§åĮĸ
Ġo x
åĴĮ æĥħæĦŁ
åľ Ī
ç¾İ å¥½çļĦ
P ro
ic ip
åĬł ä¸Ĭ
çļĦæ· ±
id den
Ġdis rupt
ens ity
ĠR ob
Ġsent ences
ä¸ªæĢ§ åĮĸ
ĠBusiness es
Ġcre am
Ġvide os
å¯¿ åĳ½
éļ¾ åº¦
Ġintegr ation
Ġ rom
åħ Ķ
çļĦ ä½ľçĶ¨
çļĦæĦŁ åıĹ
d ro
Ġinsp ire
B ob
Ġ5 00
éĻ Ĩ
Ġachie ved
el lo
ĠThe ir
çĶ³ è¯·
k y
åı¯ä»¥å¸®åĬ© æĪĳä»¬
æĴ° åĨĻä¸Ģç¯ĩ
+ +
æĮĩ æłĩ
åģ ¶
å¡ ŀ
ĠRe c
èĥ½å¤Ł åľ¨
åı¯èĥ½ä¼ļ å¯¼èĩ´
Ġstrate gy
æ· ĭ
èĮĥåĽ´ åĨħ
è®² è§£
in o
M y
Ġphr ases
æµĩ æ°´
ĠG r
Ġs aw
ph y
æĻº æħ§
çº¦ ä¸º
æŀĦ æĪĲ
Ġwide ly
æłĩ å¿Ĺ
çĸ ²
çļĦ ä¸ĢäºĽ
Ġg re
ĠUn iversity
æĸĩæľ¬ åĨħå®¹
d ata
un ct
æĴ Ĵ
ä¸įä»ħ ä»ħ
Ġ1 1
èº« ä»½
æĳ ©
Ġh ike
çļĦçĿ ¡
Ġteac her
è£ ģ
åºĶçĶ¨ äºİ
çļĦæĢģ åº¦
Ġs or
Ġrecommend ed
Ġdoes n
Ġnear by
æī¿ æĭħ
al ian
å® ¾
ç¾İ è§Ĥ
Ġinst ru
æµª è´¹
Ġvisit ing
pl ain
æĤ ī
Ġstudy ing
åĵ ¥
od ies
åķĨ åĬ¡
Ġwork out
é¢ĳ çİĩ
in ct
æĽ´ æľī
å®ĥ åı¯ä»¥
Ġess ays
I T
Ġfr ustr
am b
è®¾ å®ļ
Ġdist ance
åĬ¨ æľº
å®Ĺ æķĻ
Ġspec ifically
çļĦæ¦Ĥ å¿µ
Ġp sych
Ġorig inal
ra ft
ĠPract ice
ä½ĵ ç³»
ä¸Ģç¯ĩ åħ³äºİ
Ġh or
Ġattract ions
åĴĮ çĲĨè§£
è¿Ļ æĦıåĳ³çĿĢ
éª ĳ
od ing
èı ĩ
Ġmor ning
Ġwe b
éĹ ª
å®ļ ä½į
Ġle ave
æ½ľ åľ¨
çĬ¯ ç½ª
Ġfin al
çļĦæĻ ¯
Ġspirit ual
Ġcur ious
æĩ Ĥ
äº ¡
as k
Ġset tings
Ġmeet ing
Ġsw im
3 5
it er
å¦Ĥ æŃ¤
è£ Ĥ
æİ¥ è§¦
Ġlist en
æľī è®¸å¤ļ
å±ŀ æĢ§
æ³ķ éĻ¢
çĽ Ľ
Ġ ä¸Ń
Ġun f
ĠAut onomous
æĬ ±
æį ķ
åĲĳ éĩı
Ġform at
æ° ı
æī ĺ
åĵģ å°Ŀ
æīĢæľī çļĦ
æ© Ħæ¦Ħ
è· ĥ
Ġsk ill
Ġequ ipped
çļĦ è¯Ńè¨Ģ
åį° è±¡
Ġupd ates
ynthes is
Ġm atch
æĻļ ä¸Ĭ
ä¸Ģ éģĵ
èĸ ª
çĶ¨ éĢĶ
ĠL ook
æĺ¯ä¸Ģ ä½į
åıĸ åĩº
çķĮ éĿ¢
åŃĲ åĴĮ
Ġany one
Ġado ption
ĠL anguage
Ġcons cious
ver age
å¹¶ æ²¡æľī
Ġre ward
äºº å£«
Ġassess ments
âĢĿãĢģ âĢľ
Ġleaders hip
ĠReg ular
ĠA fter
ä¸Ģ å®¶
æ³ ¥
åħ¬ æŃ£
Ġhom es
Ġ åĬłåħ¥
å¯¹ åºĶ
Ġw aves
å¯¹ æ¯Ķ
ä»¥ åħį
Ġ ä½ł
.. .
å· Ŀ
çĶŁæ´» æĸ¹å¼ı
Ġmem or
Ġin quir
Ġwe ak
æĪ ´
æĴ ĳ
ĠInt ellig
æİ Ī
æ¼Ķ è®²
ä¸Ģ æĿ¡
çĽ Ī
Ġend angered
ish ing
f low
ĠO nce
Ġautom ated
ĠAmeric a
åĴĮ ä¸į
ä¾Ŀ èµĸ
æĹ¨ åľ¨
it her
Ġexpect ations
Ġinform ative
åĪĽ ä¸ļ
åºı åĪĹ
ĠSt art
en e
âĢ ¦
ç¾İä¸½ çļĦ
Ġm other
æĬ¥ éģĵ
ç®Ģ çº¦
Ġcon cise
Ġart icles
Ġprim ary
gra d
æ¶Ī èĢĹ
Ġ è®¡ç®Ĺ
ä¸į çŁ¥éģĵ
Ġl ink
ĠF e
æĺİ çĻ½
Ġopin ions
åģļ æ³ķ
è´¢ äº§
æ¯ıä¸ªäºº éĥ½
åĨĴ éĻ©
çľŁ çļĦ
Ġt aught
äººä»¬ çļĦ
å¤ļæł· æĢ§
ic ations
Ġst ra
Ġun c
ä¹Ł å¾Ī
ä¿¡ çĶ¨
Ġupd ated
Ġstay ing
Ġpar ks
in ations
Ġr unning
Ġre lease
Ġpredict ing
ĠInst ead
Ġwe a
Ġinter view
h y
ĠJ our
åĸ Ĥ
èĩªçĦ¶è¯Ńè¨Ģ å¤ĦçĲĨ
è¿ ª
Ġfu el
Ġcont rast
Ġbu ilt
å°ı çº¢
Ġ å»ºç«ĭ
Ġcont em
? "
Ġ ç¡®å®ļ
Ġmiss ion
Ġche ese
æ£Ģ æµĭ
Ġmob ile
äº¤ å¾Ģ
çł ĸ
å¤© çĦ¶
Ġexpress ion
Ġvis ion
Ġexp ensive
Ġar ise
Ġra pid
é» Ľ
Ġfert il
ĠJ ob
Ġsit es
Ġinclud ed
éĴ ®
Ġspe aking
ä¼ĺ ç¾İ
ç¬¦ åı·
Ġ éĢīæĭ©
ĠP er
Ġconnect ed
çļĦçĿ¡ çľł
] [
Ġqu ite
åĽ¢éĺŁ åĲĪä½ľ
äºĮæ°§åĮĸ ç¢³
Ġg ot
å¯ Ĵ
å»ºçŃĳ çī©
æĽ¾ ç»ı
Ġstreng ths
è¯Ĭ æĸŃ
Ġjour nal
éħ ª
å½¢ æĢģ
æĻ® éĢļ
Ġpl ays
è¯¦ç»Ĩ çļĦ
è¿Ļ é¦ĸ
å¦Ĥä½ķ åľ¨
å¤§ èĩªçĦ¶
ä¾¿ åĪ©
Ġg ather
ä¿® å¤į
æ¿Ģ åıĳ
Ġto w
çļĦæĬĢ å·§
ĠEx p
çº¤ ç»´
it ors
Ġrec overy
çļĦæ¸ ħ
åĸľæ¬¢ çļĦ
åľ¨ è¿ĻéĩĮ
ĠE l
åĮ¹ éħį
åľ £
ç»ĦæĪĲ éĥ¨åĪĨ
dr iven
æĺİ äº®
ä¿Ŀ åģ¥
æ°´ åĪĨ
ä½ı å®
Ġincred ible
ĠC ustom
ä¸Ĭ æµ·
igen ous
åľº åľ°
åĴĮ æĮĳæĪĺ
Ġinse ct
åĲ ī
å° ĺ
Ġappro aches
Ġconcept s
èµ ĭ
Ġdatas ets
ç»ı çĲĨ
ang ing
ak s
Ġch ronic
çī¹ æĢ§
Ġw el
å¹¶ ç»Ļåĩº
% ãĢĤ
æĺ¯ éĿŀå¸¸éĩįè¦ģçļĦ
Ġfocus ing
çļĦä¸Ģ éĥ¨åĪĨ
æľī åĵªäºĽ
æķ° åĪĹ
Ġlight ing
Ġmist akes
æ± Ł
å·¨ å¤§
N ame
f ree
åĴĮ åĪĨæŀĲ
is on
ad o
éĢļå¸¸ æĺ¯
ness es
Ġarchitect ure
æĿĲ è´¨
éķ ĩ
ĠTrans pare
Ġanc ient
æµ ´
ĠV al
éŃĶ æ³ķ
çĪ ½
çļĦæķ ´
Ġev olution
Ġ è¿Ļä¸ª
çļĦæ ĵ
èĭ Ĺ
Ġmount ain
èĥ½å¤Ł å¸®åĬ©
Ġo pp
ĠH ar
æĥ³ è±¡
çļĦç ±
ãĢĭãĢģ ãĢĬ
Ġmodel ing
Ġblo g
Ġm ut
ä¸Ģ ç³»åĪĹ
ect ive
å¿Ĺ æĦ¿
l ights
Ġk new
æİ¨ åĩº
çļĦæŃ Į
åĳĪçİ° åĩº
éľĢè¦ģ æł¹æį®
è±¡ å¾ģ
Ġcy bersecurity
Ġpro ced
åĬł éĢŁ
Ġval id
éĢļå¸¸ ä¼ļ
å°ı åŀĭ
è§Ĩ ä¸º
è¿ĩ æ»¤
Ġf our
Ġse vere
çļĦ éĢŁåº¦
æįŁ å¤±
A T
S o
æĤ ¬
Ġtra ditions
r ong
éĽ Ħ
ç¼ĸç¨ĭ è¯Ńè¨Ģ
Ġsurv ival
èĬĤ æĹ¥
å¹¶ ä¸įæĺ¯
çĹĩ çĬ¶
lo ck
åºĶè¯¥ æĺ¯
pect ed
åı¯ä»¥ çĶ¨
Ġ ä»¥ä¸ĭæĺ¯
æĦī æĤ¦
Ġn or
åĪĨæŀĲ åĴĮ
è¿Ļ åı¥è¯Ŀ
åı¯ä»¥ è¢«
æĥħ åĴĮ
Ġconf ident
Ġsp aces
N LP
Ġflex ible
¢ å¤į
Ġe gg
ĠCh o
è¿Ļ ä¸¤ä¸ª
ç¾ Ĭ
Ġencoura ging
Ġwin ter
ä»£çłģ å®ŀçİ°
æī© å¤§
Ġ å¯¹äºİ
r s
èĢĲ å¿ĥ
Ġcomp assion
é£Ł è°±
Ġsur ve
é«ĺ è´¨éĩı
Ġsom etimes
Ġassist ant
Ġqu ant
ĠIncre ased
éĿŀå¸¸ å¥½
è·¯ çº¿
uild ing
Ġbut ter
Ġmill ion
Ġw on
act ion
èĥ ¸
3 00
Ġlo yal
æĸĩ åŃĹ
æĴ ŀ
Ġinequ alities
el ess
æİ ĺ
åıĳ æĺİ
ä»¥ä¸Ĭ è¿Ļæ®µ
Ġcreat es
Ġflow ers
èĤĮ èĤ¤
ĠNor th
è´Ł åĢº
Ġsurv ive
åĴĮ ç®¡çĲĨ
åı¯èĥ½ éľĢè¦ģ
æĪĳä»¬åı¯ä»¥ ä½¿çĶ¨
Ġdist ract
æľŁ å¾ħ
æī® æ¼Ķ
æĪĲåĬŁ çļĦ
Ġes c
Ġflo at
ro ll
ad a
èĩ Ĥ
åĶ ¯
Al ice
ĠS pe
ä¿¡ åı·
Ġso on
Ġforecast ing
ĠG ra
Ġdang erous
æ¸¸æĪı ä¸Ń
ĠCh inese
åĲĪçĲĨ çļĦ
èĦ ī
ä¼łç»Ł çļĦ
Ġentertain ment
è°ĥ çĶ¨
Ċĉ ĉ
am ples
è¯į è¯Ń
ç¦» å¼Ģ
Ġfac il
c ount
Ġexperi encing
èģ ª
Ġcra ft
å¹¶ ä¸º
ec ut
Ġno ise
æľ¬ æĸĩ
è®© äººä»¬
æµģ éĩı
Ġdest ination
ĠS an
d ent
Ġw ood
æĸĩ æĺİ
èĬ± è´¹
æµĵ éĥģ
å¤« å¦»
çļĦ æĸĩæľ¬
æŀĦ å»º
è¿ħ éĢŁ
Ġsect ion
åºĶ å½ĵ
åľŁ åľ°
Ġsim ply
é¸Ł ç±»
è´ŁéĿ¢ å½±åĵį
Ġt ast
æĪĳä»¬ ä¼ļ
çĪ± çļĦ
Ġde forestation
å¾Ĺ åĪĨ
ĠEns ure
åįļ çī©
å§ĵ åĲį
W hen
è½¬åĮĸ ä¸º
Ġst op
Ġde g
Ġcons ult
Ġkind ness
çİ¯å¢ĥ åĴĮ
ç³ Ĭ
Ġse ems
çļĦæĦı è§ģ
ĠL a
åı¤ åħ¸
y on
Ġte ach
çļĦç Ĺ
è¾ĥ ä½İ
ä»¥ä¸Ĭ æĺ¯
æľĢ å°ı
Ġdev ice
åĴĮ çİ¯å¢ĥ
Ġdis play
Ġelect ronic
Ġ1 4
Ġstrong er
Ġw at
H ere
Ġst ar
Ġsu ns
ĠR iver
å®¢ åİħ
ç§¯æŀģ çļĦ
åı¯ è¡Į
çĽ¸äºĴ ä½ľçĶ¨
Ġco ord
e al
æķ°æį® çļĦ
Ġsol ve
Ġbound aries
ol ve
å¤§ èĦĳ
ç¨³å®ļ æĢ§
Ġa head
èĩª ä¸»
Ġp le
æ² ¿
Ġcomplete ly
çļĦçĬ¶ æĢģ
Ġcol d
è¡¨è¾¾ äºĨ
Ġmo lec
æĸĻ éħĴ
er b
æı Ń
èĬĿ å£«
ur ies
è¿Ĳ èĲ¥
æİ¨ çĲĨ
åŀ «
ho ps
Ġun intended
èĻ ¾
éħį æĸĻ
æĬķ åħ¥
Ġd in
ä¸Ģ èĩ´
åĶ Ĳ
åĽŀçŃĶ è¿Ļä¸ªéĹ®é¢ĺ
l or
c ue
Ġcl ar
Ġmov ies
Ġcl ients
èµ· æºĲ
ç»ĵæŀĦ åĴĮ
Ġoper ate
2 7
P T
åĪ ¸
æĹ¶ åĪ»
çĶ¨æĪ· çļĦ
çĽĲ åĴĮ
ä¸ ĥ
b ing
è¿Ļç¯ĩ æĸĩç«ł
Ġsu itable
å¹³ çŃī
ä¸ĸçķĮ ä¸ĬæľĢ
Ġadvant age
Ġimmers ive
gener ated
çļĦæ¸© åº¦
ĠP lease
å¯Į æľī
ro duction
Ġor d
çĶ¨æĪ· ä½ĵéªĮ
I N
Ġch ann
Ġappreci ation
Ġrecy cling
Ġæĺ¯ çļĦ
Ġbat ter
Ġha z
åĵºä¹³ åĬ¨çī©
ä¹ ¡
et er
ĠAv oid
ke y
éĢĤ å®ľ
ĠTranspare ncy
æ£ ĭ
Ġa st
å±Ĥ æ¬¡
çļĦæĵ įä½ľ
Ġsatell ite
åı¯ä»¥ èĢĥèĻĳ
æĪĺ äºī
Ġfocus es
Â ²
æĦŁ åħ´è¶£
Ġ4 0
èĩªçĦ¶ çģ¾å®³
åĿ Ģ
çģ Ń
åĽŀ æĶ¶
ĠW he
éĺ ´
Ġfriend ly
Ġbo ard
Ġscen ari
èĥ¡ èĲĿåįľ
Ġv ivid
èĤ º
å¼º å¤§çļĦ
Ġpand emic
ĠC reate
è¿Ľè¡Į äºĨ
è®© ä»ĸä»¬
è¾¾ æĪĲ
æ²Ļ åıĳ
å¾Ī å¤§çļĦ
åįĬ å¾Ħ
éĻĦ è¿ĳ
Ġcolle ag
Ġenc ry
æľĢ å¥½çļĦ
ä½¿çĶ¨ äºĨ
åĩĨå¤ĩ å¥½
åł ¡
Ġto t
é» İ
Ġ+ =
Ġd ress
Ġme als
] )
å®ļ åĪ¶
å°ı åĿĹ
ä¼ĺ åħĪ
çİ° åľº
å¿ĥçĲĨ åģ¥åº·
ug ment
Ġcit iz
ĠD uring
æ°¸ è¿ľ
Ġc ame
çĶµ åĬ¨
Ġengine ering
Ġst ars
th ough
rib e
il ing
éľ ľ
Ġte nd
éĽ ·
æ¤įçī© çļĦ
åıª èĥ½
3 6
åĨ ¥
Ġext ract
èĢĥèĻĳ åĪ°
èĥľ åĪ©
å·² çŁ¥
çĽ¸ æ¯Ķ
å¤§å¤ļ æķ°
èĩªåĬ¨ åĮĸ
åĪ¶ æĪĲ
éĿŀå¸¸ æľī
Ġnut rit
Ġcro ss
æ©Ħæ¦Ħ æ²¹
å¹³åĿĩ åĢ¼
h ors
u le
Ġb ed
Ġde al
Ġcal m
Ġaccompl ish
å¥¶ æ²¹
æĳĦ åħ¥
an cy
ĠIn c
ä»¥ä¸ĭ åĩł
Ġspend ing
æĮĩ åĩº
Ġcl aim
" >
Ċ ĠĠĠĠ
åĴĮ è¡Įä¸º
éĻ ª
Ġfac ial
ç ŀ
å£ ³
åĮĸåŃ¦ åıįåºĶ
çļĦæķĻ èĤ²
ad s
h ing
æ³ķ åĽ½
ĠW ill
F inally
åĽĽ ä¸ª
äººå·¥æĻºèĥ½ æĬĢæľ¯
é¸ Ń
æĮĩ ç¤º
æĢ§ è´¨
æģ ¢å¤į
A B
ens es
è¯¢ éĹ®
Ġestab lished
ä¸īè§Ĵ å½¢
å¤Ħ äºİ
ef ore
Ġlandsc ape
al ax
å¹¶ å°Ĩåħ¶
æĢ§ åĪ«
éħį åĲĪ
Ġeng aged
åİĭ åĬĽåĴĮ
Ġrelax ation
å¤§æ°Ķ å±Ĥ
ic ed
è° ģ
çŁ ĽçĽ¾
Ġvolunte ering
æ¡ ¥
çĽ¸ åıį
z z
ĠW ar
è¿Ļæł· åı¯ä»¥
åŁ ĥ
åĩ Ŀ
Ġch ance
Ġse par
è£ ¤
åı£ è¯Ń
ä¸ī ç§į
Ġorgan isms
ĠH igh
Ġdatas et
Ġits elf
å®ŀéĻħ æĥħåĨµ
Ġreal ized
å±ħ ä½ı
ä¸Ģ é¡¹
åĮº åĪ«
ĠA ct
é¡µ éĿ¢
æĽ´ å¿«
Ġpur su
æĮī éĴ®
æĺ¯ä¸Ģ æ¬¾
åĨ· éĿĻ
åŁİå¸Ĥ çļĦ
Ġemerg ing
an es
Ġ1 7
Ġgener ation
Ġa id
Ġb ul
è¿Ľ å±ķ
ĠJapan ese
åįļçī© é¦Ĩ
å¤ı å¤©
äºĶ ä¸ª
Ġp ick
XX XX
ove red
Ġconflic ts
i ra
åį« æĺŁ
çŃī å¤ļç§į
èī² è°ĥ
Ġun ex
æıĲä¾Ľ ä¸Ģä¸ª
çļĦæ ¢
Ġapp ly
Ġregul ation
ĠThere fore
å¹¶ å¯¹
èģª æĺİ
æĢģ åº¦
ĠW ater
æĺ¯ çļĦ
Ġpre y
ç»ıéªĮ åĴĮ
çĶ °
Ġfor get
éĿ¢ åĽ¢
Ġthan k
Ġsociet al
o o
Ġsh ift
å¦Ĥæŀľ æĪĳä»¬
Ġlead s
æĺŁ çĲĥ
ä¸į èī¯
Ġexpos ure
åı¯ä»¥ æĺ¯
å¤ļ åħĥ
Ġcy cle
ä½¿çĶ¨ çļĦ
Ġre le
Ġauthent ic
åĪĹè¡¨ ä¸Ń
ic a
çĮ İ
Ġfe et
p read
çĤ ī
ĠG e
æ¼ Ĥ
ĠMan agement
Ġcom ing
åħĪ çĶŁ
Ġsu per
èĥ İ
il s
Ġspot s
ĠO ff
Ġforest s
å¾Īé«ĺ åħ´
Ġdr ones
Ġcult iv
Ġ å®ļä¹ī
Ġsu c
Ġha ir
çİĩ åĴĮ
æ¸¸ å®¢
Ġse nd
ç¦ ģ
æł¸ å¿ĥ
AP P
æµ ħ
Ġvibr ant
u k
Ġ20 21
Ġ å¤§
ok en
ç©¿ çĿĢ
çļĦ ä¸įåĲĮ
çļĦæİ Ĵ
Ġad m
è° ¨
Ġinsp iration
Ġrep et
Ġn ative
åı¯èĥ½ çļĦ
onom y
çĶŁ æĹ¥
æĬ µ
I f
åĪ ł
å¼ ¯
åıĺ æļĸ
åĲ¬ è¯´
ä¸Ģ å¼ł
åĬł å¯Ĩ
çļĦ åĲĮæĹ¶
ç´§ æĢ¥
çļĦæĢ§ èĥ½
çŃī ä¿¡æģ¯
æµ ¸
iv als
Ġsub st
2 6
æ¢ °
åĨ° ç®±
Ġrece ived
éĩį åĬĽ
Ġhapp iness
y l
æĺ¯ä¸Ģ é¡¹
ch ol
æĦıè¯Ĩ åĪ°
Ġp age
äº§ ä¸ļ
å¼Ģ å±ķ
é¸ £
ĠA ustr
ch ange
çħ§ é¡¾
Ġs au
ĠA ir
çŃ Ľ
èīºæľ¯ åĵģ
s ort
ĠP ublic
Ġm agn
æ¸ħ çĲĨ
è®¡ç®Ĺ åĩº
å® ģ
æĬ ĳ
ck now
çĶ» éĿ¢
æľīè¶£ çļĦ
ä¸» è§Ĵ
Ġpart y
åħ¬ ä¼Ĺ
ç¦ı åĪ©
Ġclass room
åĲĪ æ³ķ
èįī èİĵ
i os
èĦ Ĩ
è£ħ å¤ĩ
Ġshe l
æľ¬ èº«
æĹłè®º æĺ¯
èŀį åĲĪ
ç ĺ
Ġel if
ĠAfric an
å½ĵ æĹ¶
èĬ± åį
ĠAut om
Ġh idden
p o
èĬ±åį ī
åĨħ çļĦ
åĪĨ æĪĲ
Ġfor g
Ġworks hops
èĤ ¯
Ġdepend s
Ġhigh lights
éĻĪ è¿°
åģ ¿
art ment
èĨ ľ
ad d
ä¼ļ å¯¹
æĿ Ģ
Ġal ert
æľĢ å¤§çļĦ
æĶ¾ å¼ĥ
Ġstrugg les
ä¸ĩ åħĥ
ä¸į éľĢè¦ģ
ĠV R
çľŁæŃ£ çļĦ
Ġcustom ized
Ġdep th
Ġb odies
f ast
çļĦ æĸ°
æ¯ ķ
æĳ ĺ
ides pread
Ġbarri ers
Ġmess ages
Ġdrug s
Ġintro duction
er al
ä¸Ĭ åįĩ
å¯ ĵ
== ==
con nect
Ġsuc ceed
ĠT w
å¤§ çº¦
Ġl ater
Ġacc idents
æĻºèĥ½ å®¶å±ħ
Ġcollabor ate
åľ¨ ä½¿çĶ¨
ate ly
å¹¶ è¿Ľè¡Į
æģ ©
å¿ĥ çģµ
Ġcamer as
Ġve nd
åĴĮ ä½¿çĶ¨
Ġwe alth
um b
æ¯ı ä¸Ģä¸ª
Ġcou ns
æĭ¥ åłµ
Ġ ic
äºº æĢ§
Ġvolunte er
äºĭ æķħ
ĠM ind
Ġref er
è¾ Ĳ
ocol ate
å¿ł è¯ļ
æ· Ģ
Ġdesc ription
æĻ Ĵ
å¥³ åŃ©
or al
Ġprevent ing
Ġcal c
Ġwea pons
è° Ĭ
a res
b all
ä»ĸ åľ¨
ç¤¾ä¼ļ çļĦ
Ġtechnolo gical
éĤ£ éĩĮ
() `
Ġc ert
Ġrem ains
ä¸Ģ åľº
Ġcl ub
Ġw idespread
Ġdr inks
èĲ¥éĶĢ çŃĸçķ¥
åľ° ä½į
çĭĹ çĭĹ
Ph one
å®¶ çĶµ
Ġcommit ted
Ġr ural
å¿ĥ æĥħ
Ġsens ory
Ġext ensive
æ²Ļ æĭī
çļĦçĭ ¬
Ġfor ce
Ġp air
Ġb rief
Ġ6 0
åĭĩ æķ¢
Ġunex pected
çº ½
çĵ £
Ġfru it
åĽ¾ æ¡Ī
åħ¶ ä¸ŃçļĦ
Ġcl oud
éĢīæĭ© åĲĪéĢĤçļĦ
Ġform ation
æķ Į
Ġconsum ers
k en
u gh
id ed
Ġsur f
çļĦç± »
. ãĢĬ
Ġl ibr
at ically
è®¡ç®Ĺ åĻ¨
Ġcent ury
Ġcreat ures
erm an
æ·± è¿ľ
å®Ŀ çİī
Ġexplain able
æľī çļĦ
ac ing
2 9
d om
æĪĳ ä¹Ł
è¾Ĳ å°Ħ
Ġspecial ized
Ġb urn
Ġnutri ents
çĽ Ĵ
èķ ī
æĪ¿ äº§
Ġb an
åľ° æĿ¿
ative ly
èĤ¥ æĸĻ
ĠMark et
Ġcharacter istics
Ġimpress ive
ä½ł åľ¨
ĠR em
ener ate
éģĹ ä¼ł
çļĦç¼ĸ ç¨ĭ
æĪĳ éľĢè¦ģ
i ers
eli hood
ĠIntern ational
n ic
ç½ ©
æī¾ åĩº
å¸¦ æľī
Ġb ase
çģ« å±±
åı¯ä»¥ æıĲä¾Ľ
æŃ£ éĿ¢
Ġhum or
Ġinf ect
æĬ¥ è¡¨
Ġsess ions
éķ¿ çļĦ
çİ¯ èĬĤ
Ġcommon ly
èĭ± åĽ½
ä¸Ģ ä»¶
Ġour s
åıª è¦ģ
åĴĮ æĬĢæľ¯
Ġlik elihood
Ġmar gin
ĠD NA
è ĺ
us ed
Ġv ill
å¹´ æĿ¥
çļĦçľ ĭ
f all
o le
Ġadd ed
Ġcor por
ox ide
ä¹ ±
æĸĩ æ¡£
Ġded icated
Ġpo or
ï¼ī ãĢģ
ĠT r
ac ity
ĠE ach
ĠÂ ¥
è¿Ļæł· çļĦ
Ġc ategor
èĦ ¸
lt imately
Ġan g
åĬłåħ¥ éĢĤéĩı
å¹´è½» äºº
Ġadd iction
Ġbo ost
Ġch ick
è¯ķ åĽ¾
ç»Ļ ä½ł
æ» ´
ist ant
çĽĳ ç®¡
Ġmo ving
Ġr ice
å¤ĸ éĥ¨
ĠInd ia
è´¦ æĪ·
ag ers
åĶ® åĲİ
æĹĭ è½¬
Ġs ite
Ġrev enue
ä¼ģä¸ļ çļĦ
y gen
ä¼ Ł
æµģ çķħ
æĴ° åĨĻ
éħį ç½®
pre ne
Ġd ining
ä¸į å¤ª
Ġdifficult y
éĿ¢ æĿ¡
Ġeth ics
åı ¹
å° ¿
ç¡® å®ŀ
ul ations
Ġsm ooth
Ġconc ent
æ¸ħ æĸ°
å·´ é»İ
å°Ĭæķ¬ çļĦ
Ġhous ing
è´¢ å¯Į
ĠChe ck
Ġdesign s
éĩĩçĶ¨ äºĨ
Ġincent ives
w here
iz er
è´¨éĩı åĴĮ
çĨŁ æĤī
ä»¥ä¸ĭ æŃ¥éª¤
ä¸ºæĤ¨ æıĲä¾Ľ
g al
re prene
D P
Ġ id
å¹ ¼
ĠIn ter
Ġt ail
Ġtr ial
æ» ļ
Ġper ce
éħ± æ²¹
çļĦæĹ¶éĹ´ åĴĮ
ar ily
æĪĳä»¬ åľ¨
if orn
éĢīæĭ© ä¸Ģä¸ª
çļĦ æľºä¼ļ
åŁº éĩĳ
åı¯ä»¥ ä½¿
ilo so
æķ°æį® åºĵ
Ġb rought
äºĭ ä¸ļ
éĽ ķ
é¦Ļ èķī
ĠDis c
al ks
f l
æĿ¥ è®¡ç®Ĺ
ĠF rom
Ġlar gest
Ad ditionally
Ġinvent ory
Ġf ib
æľª çŁ¥
æł¹æį® èĩªå·±çļĦ
Ġmem ber
çĽ Ĺ
r ate
Ġe ither
âĢ ¢
ify ing
æī© å±ķ
çĵ ·
çļĦç¤¾ äº¤
A C
Ġse qu
ex ic
ä¿ Ĺ
åĳĺå·¥ çļĦ
7 5
ĠS arah
Ġu pon
ç²¾ åĬĽ
åĪĿ å§ĭ
ä»¥ éģ¿åħį
Ġp ace
Ġperform ances
æħ İ
æŁĶ è½¯
ä¼ Ļ
çļĦ éķ¿åº¦
ĠM od
çļĦ å¤§å°ı
æ°´ åĴĮ
çļĦæĿ ĥ
Ġmind set
åĪł éĻ¤
åīį æĻ¯
å±ķ å¼Ģ
é»Ľ çİī
å¹´ ä»£
å®īåħ¨ æĢ§
çļĦæĢĿ æĥ³
æİ¥ çĿĢ
Ġpost s
Ġw et
n y
Ġp en
ĠH ot
æĳ ĩ
çļĦæ¢ ¦
Ġgl ad
ĠSt ate
çī¹ å®ļçļĦ
çĽ® çļĦåľ°
æĢ ķ
Ġsor ry
æĹ §
ĠB o
èµĦ æĸĻ
åıĭ è°Ĭ
Ġprodu ced
is k
æµģ åĬ¨
ustain able
ä»ĭç»į ä¸Ģä¸ĭ
æ¬§ æ´²
çĥŃ éĩı
åĴĮ çĽ®æłĩ
éĥ½ åı¯ä»¥
è¿Ļä¸ª è¡¨æł¼
æ´ Ľ
ĠĠĠĠĠĠĠĠĠĠĠĠĠĠĠĠ ĠĠĠĠĠĠĠĠĠĠĠĠĠĠĠĠ
iforn ia
æĺ¯ éĢļè¿ĩ
å®¢ äºº
çļĦæ Ľ
Ġpart ies
ĠInd ividual
ch ar
Ġlay ers
å¾Ī æľī
ĠCho ose
Ġdevelop ments
ĠPl an
æĪĳ åľ¨
ab lish
ilar ly
Ġmus ical
Ġconsider ing
Ġdel iver
æ³ °
çļĦ é«ĺ
æıĲ åīį
çļĦç ´
ä¼ļ å½±åĵį
ç¢ ±
æľĪ çĲĥ
éŃ ħåĬĽ
Ġfail ure
ĠSm art
Ġreef s
åĨ¥ æĥ³
on t
Ġf oster
åĴĮ éľĢæ±Ĥ
éĢĤ çĶ¨
Ġinquir ies
Ġis land
å°± ä¸ļ
Ġpie ces
çº¢ æ¥¼
æľ¬ è´¨
çİ¯å¢ĥ ä¿ĿæĬ¤
Ġins ide
Ġevent ually
Ġra ce
Ġhy dro
Ġrom antic
Ġb ott
Ġconsider ation
èĵ Ħ
g r
åħħ çĶµ
å« Į
ĠN et
Ġrep air
åŃ Ķ
ound s
E m
ĠL ack
Ġmotiv ation
e conomic
S T
in y
è°ĥ æĸĻ
AI è¯Ńè¨Ģæ¨¡åŀĭ
Ġpain ting
d y
i ans
Ġst age
c les
Ġours elves
çļĦç¾İ é£Ł
i us
çļĦ ä»£çłģ
åįĩ çº§
çļĦ æĸĩåĮĸ
åľ° äº§
ĠB r
ok y
ç®¡çĲĨ åĴĮ
æĪĳ æĺ¯
æĹ¶ åĢĻ
è¯· åĳĬè¯īæĪĳ
åĨį çĶŁ
Ġcontro ll
ĠJ o
y ing
æĵ İ
Ġrespond ers
èº«ä½ĵ åĴĮ
ang es
è¢«è®¤ä¸º æĺ¯
ĠA ccess
å¦ ĩ
Ġmed ication
æĪĺ çķ¥
æķĪçİĩ åĴĮ
ĠA c
Ġproced ures
çļĦæ Ł
Ġdi oxide
ĠAd v
åĵª éĩĮ
Ġtrans fer
å¼ķ æĵİ
Ġlay er
çļĦç¥ ŀ
åıĳ åĩº
Ġsoc io
çļĦçĪ± æĥħ
çļĦ åĬĽéĩı
Ġcontem porary
åĽłä¸º å®ĥä»¬
è´§ å¸ģ
Ġj u
æĦŁ æŁĵ
ĠBe ach
p x
ä¹Ł å°±æĺ¯
ç¨ į
è§£ çŃĶ
æĺİ å¤©
c omm
C O
ĠF oster
Ġliter ary
Ġfest ivals
æĻ® éģį
Ġro ll
Ġsupport ive
åľĨ å½¢
Ġcont ract
éħ µ
æģĭ çĪ±
ĠA lex
Ġerr or
Ġg ave
Ġl ab
Ġown ers
Ġsho ps
Ġminim izing
æĬĢæľ¯ åĴĮ
u ge
ĠRo bot
Ġbreath ing
W ith
Ġwork force
èĬĤ èĥ½
å¯Į åĲ«
åħĪ è¿Ľ
Ġgener ated
ä¸į åĨį
ple ment
Ġstre am
ä¼ĺ ç¼ºçĤ¹
åŁºæľ¬ çļĦ
Ġres istance
Ġ å¯¹
ä¸į å¤Ł
ĠE ff
è®¤ åı¯
Ġwatch ing
åĴ ª
æĭ Ķ
Ġsp ent
ĠM exic
åĮħ è£ħ
ç¢ ĳ
ĠDe ep
Ġuns upervised
Ġevol ved
ĠImpro ved
Ġ çº¢
Ġoper ator
æĸĩæľ¬ ä¸Ń
çº¢æ¥¼ æ¢¦
æĪĺ æĸĹ
æ»¡æĦı åº¦
Ġinter ven
Ġer os
æĤ ²
èĭ± å¯¸
! "
O n
éĢī çĶ¨
æķĻ åŃ¦
tern al
al t
çİ¯å¢ĥ ä¸Ń
Ġcamer a
æ¶µ çĽĸ
Ġ å°ı
Ġst ri
åĩº çĶŁ
èµ¢ å¾Ĺ
æ¥ ļ
çŁ© éĺµ
ä» Ļ
æĺ¯ éĿŀå¸¸
Ġpeace ful
ed ing
Ġr iver
Ġco oper
Ġ .
çļĦ åħ·ä½ĵ
Ġf oss
è®© åŃ©åŃĲ
åħ» æĬ¤
Ġperform ing
çĽ®æłĩ åĴĮ
çĹħ æ¯Ĵ
Ġbelie ved
izz a
' ]
i pp
ĠG rand
Ġro ot
å®ŀéĻħ ä¸Ĭ
ä¸ĭ çļĦ
Ġoptim ization
i am
çº¿ ä¸Ĭ
é© ±
æĬ ¹
ok ing
æĺŁ ç³»
Ġincred ibly
ð Ł
Ġs qu
re g
Ġsh op
ĠEst ablish
s q
äºº åľ¨
æĢ§ æł¼
è¯Ŀ é¢ĺ
ce ler
è¢« å¹¿æ³Ľ
èİ ī
P A
éĶ ģ
åģı å¥½
m er
ä¸Ģ å¹´
å»º éĢł
Ġfair ly
d ed
çļĦæ £
ä¼ĳ éĹ²
åĬ £
åĻ ª
ä¹Ł åľ¨
Ġre asons
Ġg ent
Ġsu m
Ġrec ip
ĠEn viron
Ġclean ing
Ġflex ibility
Ġex cept
å¾Ī å¤§
è¯Ħ æµĭ
Ġaud its
çļĦæı ı
P lease
ä»¥ å¸®åĬ©
ace book
Ġenvironmental ly
ĠDevelop ers
æĽ´ é«ĺçļĦ
çĤ İ
con t
çļĦ åŁİå¸Ĥ
æĹ ¦
éĢļ é£İ
Ġdisc ount
çħ® çĨŁ
Ġalign ed
ĠCh ina
åľ¨ æľªæĿ¥
åĩĢ åĮĸ
æĢİ æł·
ĠN ot
èĬĤ çĽ®
åĵģçīĮ çļĦ
Ġt itle
Ġd ry
Ġprof ound
Ġeros ion
åĲĳ ä¸Ĭ
çľĭ çľĭ
å¾ĭ å¸Ī
æīĢéľĢ çļĦ
é½ Ĳ
Ġpromot es
Ġ20 20
ç¼ĸ è¾ĳ
çļĦ å¤§
æĸ¹ å½¢
æĬķèµĦ èĢħ
C hor
Ġre ve
æĹł éĻĲ
Ġa cknow
èİ «
Ġcomput ing
è¿ĺ èĥ½
çİ°åľ¨ è¯·ä½ł
åį° åº¦
Ġl uck
Ġide al
a ware
i ant
ä¸ªäºº çļĦ
æĲ º
åĩı èĤ¥
ĠS ur
ĠW rite
åĬĽ äºİ
Ġfru its
Ġpre cision
æİ¢ éĻ©
y p
çİĭ æĺŁ
Sc ript
çļĦ åħĥç´ł
Ġqu eries
é£İ æĻ¯
Chor us
ä»ĸ äººçļĦ
Ġcont ains
èĢĥ è¯ķ
Ġw oman
èĥ ¶
çĥ¤ çĽĺ
ĠCal ifornia
ä¸ĵ å®¶
é£İæł¼ åĴĮ
ĠW ild
èİ İ
åĲ« éĩı
çĩĥ æĸĻ
it c
æĢĿ è·¯
Ġpur s
ç» ³
ĠIn vest
A pp
ĠB re
ĠDes pite
ä»¥ æıĲé«ĺ
Ġcandid ates
ä¼¼ ä¹İ
Ġsect or
ww w
èĤī ç±»
çļĦæ³ ¨
ed om
| ----
ä¹Ĳ è¶£
Ġevalu ation
S he
è®¾è®¡ å¸Ī
æīĭ è¡¨
è®¾è®¡ åĴĮ
Ġcompet itive
èħ »
åľ¨ è¿Ļ
éģ Ń
èĬĤ çº¦
t ail
éĺ Ķ
ç¦» åŃĲ
åĪĽéĢł åĬĽ
id ential
ĠR en
è¿Ĳç®Ĺ ç¬¦
Ġdream s
cou nter
çļĦæĢĿ èĢĥ
Ġst ores
æ¡Ī ä¾ĭ
æķ°åŃĹ åĮĸ
Ġim aging
å¤§ äºİ
ä¹ī è¯į
åĪ© çİĩ
Ġatt ack
è° ľ
erv ice
éª Ĺ
eff icient
åľ¨ è¿Ļç§į
ä»£ è°¢
çŁ¥è¯Ĩ åĴĮ
åı ł
åĪ° çļĦ
æ¯ı åĳ¨
èģĮ è´£
çģ« æĺŁ
Ġpurs ue
Ġpersonal ize
P S
Ġf em
Ġk ids
E O
å¹¶ ç¡®ä¿Ŀ
æ¬ º
çªģ çĦ¶
Ġund erg
é»ĳ èĥ¡æ¤Ĵ
Ġadapt ed
h ab
çļĦæ ½
Ġhe s
ä¸º ä¸Ģä¸ª
æľīæĹ¶ åĢĻ
w ide
ac hed
Ġnot es
Ġensure s
åľĨ çļĦ
ç¿ ħ
cl ass
Â ł
Ġ æ¸¸æĪı
è´ «
ĠAfric a
ur ch
ĠO p
Ġreflect s
b it
ut h
em pt
ä¾¿ æį·
Ġcomplex ity
Ġadult s
l en
æĻ ¶
iel d
ĠO ut
æ¡ ¶
Ġoff ered
Ġfeel s
Ġhistor ic
ĠTra il
è§Ĥ æµĭ
ĠJour nal
æ³ Ħ
ĠIndividual s
çļĦæ ¨
Ġra re
çĳ °
Ġble nd
Ġinterven e
Ġw rong
çĽ¸ çŃī
Ġh ob
ĠRe ad
åģľ è½¦
Ġfa ith
ĠAr ctic
çĶµ æºĲ
Ġ20 19
ä¸Ģå®ļ è¦ģ
çĶŁ æĬ½
Ġcompet ition
ĠS pan
Ġart ist
è¯Ħ åĪĨ
æıı ç»ĺ
ä¸Ĭ ä¸ĭ
æ¬¡ æķ°
4 8
Ġth ird
æł¼ å¼ı
Ġcol l
ĠB ra
å¾Ī å¥½çļĦ
Ġadapt ations
çļĦæĻº èĥ½
st yle
ä¸į ç¡®å®ļ
Ġinit ial
Ġ æıĲä¾Ľ
Ġp estic
Ġemphas izes
ord er
Ġsurround ings
çĶŁ åĬ¨
Ġenjoy able
æıŃ ç¤º
Ġf at
ç®Ģ åİĨ
Ġtut oring
å®¶ æĹı
Ġloyal ty
ĠF irst
è¿ĻäºĽ éĹ®é¢ĺ
Ġpartners hips
åľŁ è±Ĩ
al ia
lo t
èĩ´ åĬĽäºİ
Ġcolleag ues
èĺ ĳ
re t
å¢ ¨
åĲĦ èĩª
çľ¼ çĿĽ
Ġg ear
Ġimprove ments
Ġqu iet
å¡« åĨĻ
Ġcoast al
æĪ¿ åľ°äº§
Ġres idents
é¤Ĳ é¥®
Ġpropert y
Ġox ygen
Ġst ates
åº¦ è¿ĩ
Ġloss es
Ġparticip ants
Ġsupp lies
Ġsn acks
Ġheav y
è¿Ļæĺ¯ åĽłä¸º
å·¥ èµĦ
Ġfac ilities
Ġtot al
ĠG reen
Ġf ant
æĿ¥ æıĲé«ĺ
æĮĩ å®ļ
Ġencoura ges
Ġu ps
çļĦæĿ ¡
h a
Ġ %
å®¹ åĻ¨
ĠV ol
å¼ł ä¸ī
çĽĳ æİ§
Ġconstant ly
èĺĳ èıĩ
e em
w hile
os is
ĠSt ay
çļĦç ³
20 19
6 7
ä¸Ģ åĪĩ
ĠF in
éĤ£ ä¸ª
è¿Ļéĥ¨ çĶµå½±
Ġcons ent
C T
é¢Ħ çĥŃ
è® ¼
ra ys
åĪĨç±» ä¸º
Ġtrans actions
Ġ éĢĤéĩı
åŀĭ åı·
Ġmemor able
I I
éĥ½ èĥ½
ci ence
çĲĥ éĺŁ
å¼º çļĦ
å®¢ æľį
Ġqu e
Ġdeploy ed
èĤ² åĦ¿
Ġaud io
c raft
æ¨¡ åĿĹ
Ġdec or
è¯ī è®¼
Ġregard ing
Ġl augh
ĠAn g
Ġint ended
Ġenc ount
æľī æ²¡æľī
Ġs ort
ĠR ep
Ġbra nds
ç±³ é¥Ń
å¹² æī°
form ation
Ġgener ally
Ġqu al
le ar
af e
æ¼ ł
å¥¶ éħª
Ġconvers ations
ĠS chool
ä¹Ł è¦ģ
è¿ĩ å¤ļ
ä¸ĵä¸ļ çļĦ
M L
res ult
æł¹æį® ä»¥ä¸ĭ
Ġavoid ing
Ġinsect s
Ġa th
ä¹Ł éĿŀå¸¸
æ¼Ķ åĳĺ
éĩıåŃĲ åĬĽåŃ¦
Ġsummar ize
åľ¨ éĢīæĭ©
Ġac celer
ĠEn joy
åĭ º
u ce
åĪ¤ åĨ³
Ġcho osing
åĮĸå¦Ĩ åĵģ
Ġsau ce
åĶ®åĲİ æľįåĬ¡
åĴĮ å·¥ä½ľ
å°¤åħ¶ æĺ¯
Ġen forcement
8 8
al f
Ġmo ist
Ġtra de
çĶµåŃĲ éĤ®ä»¶
å½ĵ ä»£
æ¯ĶèµĽ ä¸Ń
Ġpap ers
é£ŀ æľº
od cast
æĪĳä»¬çļĦ äº§åĵģ
Ġg ir
Ġent reprene
æ¡Ĩ æŀ¶
è¾ĥ å¤§
Ġnutri ent
Ġgra ph
Ġinstruct ions
é ³
Ġ å®ļæľŁ
åģ¥åº· åĴĮ
Ġcompos ition
Ġloc als
åĶ¯ ä¸Ģ
äº§çĶŁ çļĦ
èĪĴéĢĤ çļĦ
Ġso ph
Ġrem ove
Ġplant ing
Ġremot ely
Ġsong s
Ġhur ric
çļĦæĥ³ æ³ķåĴĮ
Ġreport s
æĭĵ å±ķ
çļĦæ¦Ĥ çİĩ
çļĦ åŃĺåľ¨
é«ĺ åĵģè´¨
ru it
Ġl en
çļĦ ä»£è¡¨
Ġac qu
5 5
Ġhe aring
æŃ ¦
Ġchang ed
Ġdec line
çļĦæİ¨ çĲĨ
Ġver b
Ġmount ains
æ¬ ²
å¦Ĥä½ķ åĪ¶ä½ľ
ä¸Ģ æĿ¯
Ġfact or
å®¤ æ°Ķä½ĵ
éĢĶ å¾Ħ
ä¸į å°ĳ
äºī è®®
D es
Ġint ent
æĺ¾ èĳĹ
æµ Ĩ
Ġ ä»İ
Ġproduct ive
æ¦Ĥ æĭ¬
Ġact ually
æľīæīĢ ä¸įåĲĮ
çļĦæ³ķ å¾ĭ
åı¯ä»¥ ä»İ
å¥ ĳ
[ '
æĥ §
æĮ «
3 1
m l
çĥ ĺ
é¢Ŀ å¤ĸ
Ġmet rics
ä¸ŃåĽ½ åı¤ä»£
ĠC ost
çļĦ ä¸ĸçķĮ
éĢĴ å½Ĵ
Ġsav ings
ĠSpan ish
Ġ è¦ģ
èİ·å¾Ĺ äºĨ
Ġ8 0
d iv
çļĦ è¯¦ç»Ĩ
å¸ĥ ç½®
Ġillustr ate
o ps
Ġte le
ĠIt s
ec d
G enerate
èµ Ķ
ĠO ther
Ġd ol
Ġsatis f
old en
æĪĳä»¬åı¯ä»¥ éĢļè¿ĩ
åĴĮ åģ¥åº·
Ġph iloso
ĠF ocus
åĴĮ ç»´æĬ¤
Ġan ecd
um s
Ġb ill
Ġfl u
åħ¨çĲĥ åıĺæļĸ
Ġindepend ent
éļľç¢ į
Ġl ux
å½ĵ æĪĳä»¬
æŀģ ç«¯
Ġhon est
ĠJ ust
ç©º è°ĥ
æ¿Ģ çĥĪ
Ġm ath
åĤ¨ èĵĦ
ä»ª å¼ı
åĬ¨ æĢģ
e k
è§£ è¯»
r ial
å°Ĩ ä»¥ä¸ĭ
åħī çħ§
he st
Ġw arning
åĪ ĳ
åĪĨ æķ°
Ġgood s
éĢĲ æŃ¥
æķ£ æŃ¥
se m
æĥ ľ
æ´Ĺ è¡£
æ¢¦ æĥ³
ä½ł ä¼ļ
Ġtre nd
çłĶ åıĳ
çļĦ ä¸»
Ġm yst
çļĦ è¡¨çİ°
Ġkeep ing
æŁĶ åĴĮ
lect ion
ĠT V
éĥ½ éľĢè¦ģ
é¡º åĪ©
Ġrain forest
Ġearth qu
çī© æµģ
Ġbreak fast
Ġdes pite
å®ī éĿĻ
Ġs our
as ure
çļĦæĶ ¹
çļĦæĦı æĢĿ
Ġdisc overed
Ġt ick
åĽŀ æĬ¥
åŃ¦ ç§ĳ
è® ¯
pl it
Ġabs or
Ġconven ient
i or
Ġa ugment
çļĦ å®¶åºŃ
ä» ģ
ot ic
ab ular
Ġc rim
æĪĲ çĨŁ
ap ter
å¼ķ åıĳ
åŃĲ éĩĮ
Ġprot ocol
0 1
éģĩ åĪ°äºĨ
æ¹¿ åº¦
ä½Ĩ æĪĳ
çĥŃ æĥħ
éĢī è´Ń
æīĢ å¾Ĺ
p ass
Ġstand ard
Ġcent ral
A N
åŀ Ĥ
em y
çĤ¹ åĩ»
èĩ³åħ³ éĩįè¦ģçļĦ
ĠH aw
Ġp ow
Ġprevent ion
ç«ŀäºī åĬĽ
åıį æĢĿ
Ġcamp ing
fra id
k ay
æĻ¯ è§Ĥ
Ġassign ments
Ġsoph istic
ĠEar ly
m al
t aking
ë ĭ
æŀ Ŀ
å®ļ çĲĨ
Ġbig gest
S e
Ġ æĬĬ
åĬ© æīĭ
Ġref ers
æĪĳ å°Ĩ
Ġgo es
ĠS k
å®ĮæĪĲ ä»»åĬ¡
çī¹åĪ« æĺ¯
Ġex ecut
äºº ç¾¤
å®ŀ æĹ¶
Ġtext ure
Ġob tain
ĠIm plement
çļĦçĶŁæ´» æĸ¹å¼ı
çļĦ ä»»åĬ¡
çļĦæ »
å¤© æĸĩåŃ¦
å¹´ ä»½
Ġund ers
Ġclo s
Ġdecre ase
. âĢĿ
æĦı æĢĿ
ä½ł æĺ¯
Ġhuman ity
éĢļè¿ĩ å¯¹
çŃĽ éĢī
Ġoff ice
æĮĩ çļĦæĺ¯
Ġa fraid
Ġf ront
Ġrest rict
é»Ħ æ²¹
éĻ¤ ä»¥
Ġcontribut ions
Ġthr ive
Ġmetap hor
ç¼ ĺ
åĭ Ĵ
Ġcitiz ens
çĿ £
u ps
éĢ Ĩ
Ġbo x
éĵ ĥ
ĠB rit
æ³¨æĦı åĬĽ
åį ĵ
Ġperi ods
Ã Ń
èĨ Ģ
Ġshowc ase
çĮ« åĴª
Ġex change
æĿĥ çĽĬ
æ··åĲĪ çī©
Ġad vert
ĠInd ian
ç´ł è´¨
æĹ© é¤Ĳ
åĲĳ åīį
Ġag ent
oky o
åĵª ç§į
è¿Ļ ä¹Ł
ĠC reat
Ġevery day
ä¼Ļ ä¼´
Ġcomp are
åı¯ä»¥å¸®åĬ© æĤ¨
Ġpres erve
ç¾İåĳ³ çļĦ
æĺ¯ åĽłä¸º
Ġhe rit
Ġch ocolate
çĲĨ æĥ³
æ®µ èĲ½
ĠEm ploy
Ġlabel ed
ough t
å¯¹è¯Ŀ ä¸Ń
éī´ åĪ«
åį§ å®¤
æĪĳ å¾Ī
ĠD ay
åĽŀ å¿Ĩ
I nt
Ġ åĪ¶å®ļ
åı¤ èĢģ
åĪĨ è§£
Ġres cue
ĠD et
Ġ< <
Ġl ights
o ff
åı ī
ĠPro gra
Ġdest inations
åıĹæ¬¢è¿İ çļĦ
å· ¾
Ġpre c
ä¸» åĬ¨
åŃ¦çĶŁ çļĦ
ĠS te
um es
Ġp al
Ġsu gar
H ello
Ġh op
Ġpr icing
Ġregul ate
Ġtri ed
ç¢Ĺ ä¸Ń
Ġic onic
Ġsm ell
çĦ¶åĲİ å°Ĩ
æľī å®³
Ġorgan ized
çļĦæ¨ ¡
ĠS elf
Ġag encies
abular y
äº« çĶ¨
åľ°çĲĥ ä¸Ĭ
éĻª ä¼´
p act
ĠT rue
um n
çļĦçľ ¼
ar row
em ploy
çİ°ä»£ ç¤¾ä¼ļ
ĠF urthermore
ĠG ener
av id
è¡¨è¾¾ å¼ı
æŃ» äº¡
Ġen counter
æ¼Ķ å¥ı
e v
èī ³
6 6
() ;
çĸ² åĬ³
Ġ ä½łå¥½
ç«ĭ åį³
Ġpers u
å¢Ļ éĿ¢
ãĢĤ "
åĲ Ĭ
Ġherit age
Ġa verage
æ¸ħ æ¥ļ
æįŁ åĿı
ain t
åİŁ å§ĭ
rap y
å¿ĹæĦ¿ èĢħ
Ġwell ness
åħ¬ å¹³
åı« åģļ
å«Į çĸĳ
ä¸Ģ æĹ¦
agra m
Ġman ip
åħĶ åŃĲ
æıĲä¾Ľ çļĦ
åı¯èĥ½ æĢ§
åĳ½ è¿Ĳ
Ġn amed
åİ» éĻ¤
çļĦç« ŀäºī
ï¼ļ ",
Ġan om
Ġl ength
__ _
æĪĲä¸º ä¸Ģä¸ª
è§£éĩĬ ä¸Ģä¸ĭ
èĩ³åħ³ éĩįè¦ģ
çļĦ è·Ŀç¦»
äºĨ å¾Īå¤ļ
Ġvol can
Ġins urance
ĠA b
çļĦç¾İ å¥½
è¿ĺæľī åħ¶ä»ĸ
ra ge
é¢ Ī
ul ent
æĢ ª
Ġadvant ages
åħ³ å¿ĥ
çģ¯ åħī
Ġcomp ost
å®ĥä»¬ åľ¨
Ġlog istics
Ġrelig ious
ĠW riting
å°½ å¿«
æĿ¡ æ¬¾
Ġhar vest
p y
æĸ¹æ³ķ åĴĮ
å¸Ĥåľº ä¸Ĭ
é¢ĨåŁŁ çļĦ
ä¼łç»Ł æĸĩåĮĸ
Ġre pe
A S
è¡¨è¾¾ èĩªå·±
Ġliter acy
Ã ³
Ġa qu
çļĦ åıĳçĶŁ
ĠA nt
ĠT om
éĢ Ĭ
åı¯ä»¥ çĶ¨äºİ
çº½ çº¦
Ġimp air
ĠCh ar
åĴĮ é«ĺ
Ġto ugh
ä¼ļ åľ¨
èº« é«ĺ
ĠMed ical
res ents
Ġchann els
åº¦ çļĦ
è§Ĥ å¿µ
aut hor
Ġc ast
åħ ģ
ond on
é¼ »
èľĤ èľľ
re et
åĪĩæĪĲ å°ıåĿĹ
ç²Ĵ åŃĲ
ĠS ustainable
Ġgu ests
m as
Ã ¡
Ġinsp iring
Ġalong side
Ġ ê
Ġir r
æľī ä»»ä½ķ
Ġfrequ ently
çļĦæ¶Ī è´¹
çļĦæ ¡
ç« ŀ
äºº æķ°
æīĭ åĨĮ
çļĦæİ ¢
ĠW ork
åĪĽéĢł åĩº
pro fit
ĠRed uc
Ġh iring
Ġex cess
Ġbre ad
Ġm el
ĠMonitor ing
Ġ ä¿ĿæĮģ
Ġro t
Ġart s
ars h
å¡ĳ éĢł
äº¤ æį¢
å®īåħ¨ åĴĮ
å¹¶ ä½¿çĶ¨
f unction
å¸ ĺ
åħ³ éĹŃ
ä¸İ ä»ĸäºº
æİ¥ è¿ĳ
Ġdist inct
Ġrecogn ized
Ġpresent ation
ĠWhe ther
o ir
Ġ åĩĨå¤ĩ
Ġqu ote
Ġf ix
å¸®åĬ© ä½ł
Ġsur pr
éĻ¤ æŃ¤
Ġaffect ing
p art
Ġpersonal ity
å² ¸
Ġcent ers
Ġmig ration
çİ «
ĠE d
Ġtime ly
Ġbe low
ĠPro t
æ¢ ³
ect s
m in
Ġ ly
çļĦæ į
æ² ¸
éĿŀå¸¸ éĢĤåĲĪ
Ġautom atically
è°¢è°¢ ä½ł
l n
ĠE very
3 2
Ġed iting
Ġconst ruct
çĩĥ çĥ§
çļĦæĹħ æ¸¸
Ġread y
æĺ¾ å¾Ĺ
çļĦæ¢¦ æĥ³
ç´§ å¯Ĩ
Ġsho es
Ġco zy
ä»ĺ åĩº
èĬ Ĵ
å¹´ äºº
Ġmon th
æı ´
çİ« çĳ°
åĨ· åį´
st and
E D
Ġprevious ly
at o
Ġgra v
Ġe p
åħģ è®¸
Ġded ication
åĮĹ æŀģ
Ġsched ules
Ġth or
å¸ Ŀ
Ġident ified
çħ ¸
ç»ĺ çĶ»
al ized
Ġcould n
ç¿ °
å² Ĺ
èŀ º
æĮ ĸ
Ġmil k
ĠT okyo
éĤ Ģ
Ġimm une
R I
åľ° åĿĢ
èĩª è½¬
am a
Ġfind ings
çĶŁåĳ½ çļĦ
éĻ¤æŃ¤ ä¹ĭå¤ĸ
Ġs chol
åĴĮ çĶŁæ´»
Ġn u
ĠL ake
Ġbus y
ĠA tt
Ġdes ire
é¦Ļ åĳ³
å« ©
Ġ å°Ĭæķ¬çļĦ
çļĦ å½¢å¼ı
Ġ ille
æĿ¥ è§£åĨ³
ï¼Ł âĢĿ
in atory
ut e
ĠG erman
Ġ åĪ¶ä½ľ
Ġdes ert
é¥® åĵģ
ren ce
Ġre b
Ġappropriate ly
éĤ »
ç¨İ åĬ¡
èĬ ¬
Ġfre edom
Ġm aster
Ġopin ion
A re
t les
ĠAnaly sis
åĴĮ åºĶçĶ¨
è¿Ĳ è¾ĵ
ç¢ °
å®¹ éĩı
Ġgr ass
Ġstre t
ä¸º æĪĳ
Ġcap acity
æıĴ åħ¥
ĠL im
ç»ĦæĪĲ çļĦ
lo g
åº Ħ
ä¸º ä½ł
åľ° åĽ¾
Ġrep resents
u ation
Ġse cre
é¦Ļ èįī
Ġpro s
Ġst ability
Ġst ick
æĪĳä»¬ è¦ģ
dr iving
Ġjo in
åıĳ åĬ¨æľº
å®¶ çļĦ
W hile
æĪĸ æľįåĬ¡
Ġb ak
ĠU sing
è·¯ å¾Ħ
è¿ĳ å¹´æĿ¥
èĭ± éĽĦ
ä¿ĥ éĶĢ
çĶľ çĤ¹
åĻ¨ æĿĲ
Ġcomb at
Ġgl ass
or g
Ġw it
æŃ §
å½ĵ ä½ł
Ġcon v
æĪĸ ç¼º
Ġemb race
Ġcompon ents
ä½Ĩ åľ¨
Ġaim s
åºĨ ç¥Ŀ
èĢ į
æĿ¥ è¿Ľè¡Į
ĠE v
Ġscenari os
çļĦç Į
ĠIn cl
çĭ ®
åĴĮ æĹ¶éĹ´
Ġre wards
åħī åĲĪ
Ġ* *
Ġbe aches
åī ¯
éħį æĸ¹
é±¼ ç±»
is ter
Ġb act
Ġle aving
ä¸įæĸŃ åıĳå±ķ
ä¸ª æľĪ
ac erb
äº² å¯Ĩ
itut e
sq rt
h t
wor king
çº¦ ç¿°
èĤ ł
èĢĮ åľ¨
ç»Ĩ èıĮ
åķĨ åºĹ
Ġappl ied
Ġfoss il
us i
Ġeduc ators
erv ations
Ġcirc um
Ġb ars
å®¢æĪ· çļĦ
ĠCompan y
çļĦæĮĩ å¯¼
ĠF est
éģĹ äº§
p oint
å¿ §
ub e
çº¿ æĿ¡
çĶ· æĢ§
V ID
Ġdis pl
çŁ³ å¤´
Ġm amm
æĬ ĵ
ä¸ªäºº ä¿¡æģ¯
èĳ± å§ľ
ĠP ar
æĶ¯æĮģ åĴĮ
Ġask ed
Ġco vers
3 4
ä¸Ģ éĥ¨
Ġex acerb
Ġpo se
Ġisol ation
Ġscen ic
Ġelectric ity
ĠCent er
ĠIt alian
Ġbel ong
çļĦæīĭ æľº
Ġf ather
Ġsim pl
Ġdess ert
Ġ äº§åĵģ
Ġveh icle
æ°ı åº¦
âĢ ĭ
6 5
æł· æľ¬
åŃĹ åħ¸
Ġhapp en
h r
çļĦæ½ ľ
çģ° èī²
Ġlo oks
æ³¨ éĩĬ
ç¾İ çļĦ
Ġmob ility
Ġrein forcement
çļ ĩ
es tern
æĽ ¼
ill ance
ĠP al
çļĦç ĸ
çļĦæ Ĳ
åĩº èī²çļĦ
æłĩ çŃ¾
ĠE ss
ç¨İ æĶ¶
èĤ ©
Ġc ertainly
æĺ¯ äººç±»
Ġv ir
ä¿Ŀ çķĻ
ĠR est
ç¬¬ åĽĽ
åĴĮ å°ı
Ġmus icians
ĠBl ack
Ġdow nt
Ġst im
od es
ĠS ee
Ġint ric
æĤ Ł
é»ĳæ´ŀ çļĦ
im al
ag on
Ġs ample
åĿĩ è¡¡
ä¿Ŀ åŃĺ
èħ °
çĩ ķ
è¿ĺ è¦ģ
è¡Ģ åİĭ
æī «
ĠÃ ·
Ġap art
arm ing
å½ĵåľ° çļĦ
çł Ĥ
åħ¬åı¸ åľ¨
è£ Ļ
åĳ¨ éķ¿
m ission
ĠF ood
ĠĠĠĠĠĠĠĠ ĠĠĠĠ
æķı æĦŁ
Ġdescript ive
Ġsophistic ated
æľī éĻĲ
Ġsaf ely
Ġdire ction
Ġcris is
ç«ŀäºī å¯¹æīĭ
æ±¤ åĮĻ
è´¾ å®Ŀçİī
æĪĳ å¯¹
b ut
est eem
çľĭ åĪ°äºĨ
Ġf ost
ä¸ļ ç»©
Ġunc ertain
åĤ¨ åŃĺ
å¹¶ æıĲåĩº
æĺ¯ä¸Ģ åĲį
åĪĹ ä¸¾
èħ Į
k illing
on a
Ġind igenous
åĪ© äºİ
é¢Ħ è®¢
Ġ20 18
Ġdiagn ose
èĳ¡èĲĦ éħĴ
åı Ļ
æĦı å¿Ĺ
çİ© èĢį
F urthermore
p ir
Ġserv ing
çļĦæĢĿ ç»´
E S
Ġoff ic
Ġaut onomy
Ġatt empt
Ġenh ancing
dent ify
èĴ Ļ
åľ¨ æŃ¤
åıĤ è§Ĥ
ç¹ģ æ®ĸ
et ers
çĶµ åķĨ
Ġcontribut ed
ä½ ©
èº«ä½ĵ çļĦ
er ce
wor th
çĽ¸å¯¹ è®º
åı¯ åĨįçĶŁ
A ll
it ter
ro c
æĺ¯ä¸Ģ éĥ¨
æİ¨ è¿Ľ
ĠK ing
ç¯® çĲĥ
4 00
å°ĳ éĩı
éĩĮ çļĦ
ric ul
çļĦæĢ§ æł¼
ç¨ ¿
åı£ ç½©
az z
author ized
k es
Ġ æıĲé«ĺ
æĪĳä»¬ ä¹Ł
ĠG ard
éŁ §
å¤ļ æ¬¡
æĮ ĳ
od ay
ast s
Ġinvol ving
Ġmuseum s
æĸ° äº§åĵģ
å½¢æĪĲ äºĨ
å¦Ī å¦Ī
Ġcrim inal
ĠM or
æľ¨ æĺŁ
Ġs ight
Ġtour ist
åħ³æ³¨ åĴĮ
mar ks
% ï¼Į
Ġpict ure
çļĦ åīį
ç¨³ å®ļçļĦ
æĸĩåŃ¦ ä½ľåĵģ
Ġille gal
ä¹ Ŀ
Ġcrit ic
åĲĮ æĦı
åıĹ ä¼Ĺ
æŁĲ ç§į
Ġcr ime
Ġsh ar
åĴĸåķ¡ è±Ĩ
ĠOn line
Ġfollow s
ĠM ain
æĽ¿ æį¢
Ġvoc abulary
Ġnarr ative
ĠT est
çĻ Į
çīĽ é¡¿
åıį å°Ħ
Ġill ness
åĢ¾ åĲĳ
æĤ ł
ire ct
å¤ľ æĻļ
O S
ä½ł è®¤ä¸º
åĨħ åŃĺ
åĽŀ å½Ĵ
åŃĺåľ¨ çļĦ
åıĭ å¥½
ä»¿ ä½Ľ
itc hen
çļĦç²¾ ç¥ŀ
è§Ĥ çľĭ
æĻºèĥ½ åĮĸ
åħ± æľī
é¦Ļ æ°Ķ
æľº æ¢°
Ġthor ough
Ġun authorized
Ġp odcast
Ġoce ans
ĠSm ith
æĴĴ ä¸Ĭ
ĠP ort
Ġdeep ly
w er
Ġex act
Ġj ump
Ġrespons ibilities
æħ Ī
Ġrapid ly
orm al
Ġc as
Ġthe ory
Ġform al
ãĢĭ ãĢĤ
åħ´ å¥ĭ
ĠMay be
ä¸»äºº åħ¬
çļĦæ² »
ç¥ŀç§ĺ çļĦ
ä¼ ¯
åİĨ ç¨ĭ
å¯¹æĸ¹ çļĦ
å±ķç¤º äºĨ
Ġcomple ment
é² ¸
å·¥ä½ľ ä¸Ń
Ġdis s
å¹³ éĿĻ
Ġen ables
d es
id ay
Ġarg uments
åľ° ä¸Ĭ
åĮºåĿĹéĵ¾ æĬĢæľ¯
t a
éľĢè¦ģ çļĦ
Ġme ant
ru ption
Ġel im
ĠDevelop ing
çļĦçĥ ¤
e ah
Ġg ift
å¯¹ äººç±»
ä¸įåı¯ æĪĸç¼º
Ġre lying
ä¾ £
è¿Ľ åĮĸ
Ġ urg
åĨ ł
è¶ĬæĿ¥è¶Ĭ å¤ļ
ä¼ Ĭ
æĬĢå·§ åĴĮ
åģľ æŃ¢
çİĽ ä¸½
éĤĢ è¯·
es ter
ĠG ree
Ġmus cle
ĠEnviron mental
Ġgen e
é½ ¿
ĠS un
å¸¸ çĶ¨
æļ Ĥ
æ¼Ķ åĮĸ
å·¥ç¨ĭ å¸Ī
æĿ¥ åĪ°
å¼ºè°ĥ äºĨ
ce an
ç¼ Ŀ
ing u
æŁ ¿
ĠLoc ated
Ġchick en
c ription
Ġun able
æī¿ åıĹ
Ġaccommod ations
v is
çļĦ åı£æĦŁ
åİ Ĥ
æĦŁ æĥħ
ĠL ondon
Ġs ac
Ġdeg ree
1 50
ä¼ł æī¿
Ġdiscrim inatory
p erson
Ġthe sis
ri x
ä»£ åħ¥
å¾Ī éļ¾
Ġgent le
P erson
æĸĩ çĮ®
ĠD ef
Ġcomp rom
Ġenjoy ing
çĶŁæĢģ çİ¯å¢ĥ
ĠG et
Ġdin ner
} $
åħ ½
Ġsched ul
Ġsup ervised
ä¿® åīª
é¢ĨåŁŁ ä¸Ń
Ġreal istic
Ġbir th
Ġvend ors
Ġdesign ing
Ġ æ°´
Ġc ock
åŃ¦ æľ¯
ĠB ased
Ġapp oint
Ġ æľĢåĲİ
Ġsc ans
æĸ½ èĤ¥
ä¼¦ çĲĨ
ä½ĵ çļĦ
S h
i en
æĮ« æĬĺ
æĿ¥ çļĦ
Ġ è¾ĵåĩº
æŁ ±
Ġredu ces
ä¸Ń åįİ
æĽ´ å¤§çļĦ
åĭ ¤
åĻ¨ åĴĮ
æĥ ĳ
åł Ĩ
Ġswim ming
å»ºç«ĭ ä¸Ģä¸ª
ï¼ļ ï¼Ī
Ġg un
ä¹ī åĬ¡
a ment
Ġw ider
çĳ ŀ
é¢Ħ æľŁ
ch ain
æĹ¥å¸¸ çĶŁæ´»ä¸Ń
çļĦçľĭ æ³ķ
Ġsk i
ç§¯ ç´¯
åĸľ çĪ±
Con clusion
Ġprotocol s
Ġun w
çŁŃ è¯Ń
æĭħ å¿ĥ
Ġc her
æľī çĽĬ
æº ¯
Ġsc ale
t able
ot ing
Ġ1 000
èĩªå·± åĴĮ
åħ¶ä¸Ń åĮħæĭ¬
çī¹çĤ¹ åĴĮ
t elling
åĲĦ åľ°
Ġrout e
Ġhot els
æīĭ çİ¯
Ġshow ed
è°¢è°¢ ä½łçļĦ
ĠApp le
ĠMind ful
Ġirr igation
str ing
Ġreflect ion
Ġcop ing
m ic
ĠH ouse
åħ» çĶŁ
ä»·åĢ¼ åĴĮ
mm a
åıĳ éĢģ
Ġindust rial
å¼Ģ æĶ¯
çĽ´ å¾Ħ
Ġcolor ful
it ivity
h usi
ä¸ĭ åĪĹ
Ġpo ol
Ġinv asive
ä¸įä»ħ åı¯ä»¥
çļĦæİ ªæĸ½
Ġpestic ides
" "
us ivity
Ġpr on
çļĦ åĳ³éģĵ
è¿ «
èĩªçĦ¶ çİ¯å¢ĥ
Ġ åĩ½æķ°
Ġt alent
ä¸Ģ çĤ¹
Ġv ict
å¨ ľ
8 00
æĺ¯ å¦Ĥä½ķ
æľī æ°§
ĠF acebook
çıį æĥľ
b t
ab y
åĵ ¦
æĦŁ çŁ¥
Ġnum bers
æķħ éļľ
Ġintegr ate
Ġcouns eling
l abel
åĴĮ ä¸Ģä¸ª
æĭ ĸ
Ġsc ore
åľ° çĲĨ
Ġtransl ate
ĠAg ricult
ä¹Ļ æĸ¹
ï¼ļ ãĢĬ
Ġadapt ation
æĻ ´
Ġjud gment
f ish
l a
Ġencry ption
ĠF ore
æ» ĭ
Ġmil es
ï¼ļ") )
Ġanecd otes
è°ĥ çłĶ
Ġworld wide
å¹¶ æł¹æį®
åĬł éĢŁåº¦
Ġalloc ation
èĬĤ çľģ
çħ¸ çĤĴ
u ous
çļĦç Ĥ
éĩį å¤§
el ine
" ?
Ġpriorit izing
Ġh it
ä¼ļ æľī
æĪĳä»¬ è¿ĺ
Ġres olution
Ġcl ient
åĽŀ åĪ°
ĠF ind
åĵģçīĮ å½¢è±¡
ash ing
R e
iz ers
ä½Ľ æķĻ
m ark
æī¾ åĪ°äºĨ
æĸ½ å·¥
Ġchild hood
æľīæīĢ å¸®åĬ©
Ġfriends hip
åįĵ è¶Ĭ
é»ĳ æļĹ
Ġobject ives
ĠR et
Ġrec ently
ĠArt ificial
åĴĮ åŃ¦ä¹ł
20 20
ç½ĳ ä¸Ĭ
è±ª åįİ
s p
çŃī å¤ļä¸ª
æĺİ äºĨ
Ġent husi
Ġc os
ä¸ĭ åįĪ
Ġmor al
Ġdog s
Ġas king
è½ ´
I P
Ġs yn
çļĦæĹ¶ å°ļ
Ġ åŃ¦ä¹ł
re es
å°ĳ å¹´
pan y
Ġactive ly
Ġ ä»·æł¼
ä¸Ń éĹ´
æ° Ľ
Ġrest oration
çļĦæķ° åŃ¦
Ġegg s
Ġg ar
æ¯ı å¹´
Ġt ension
æłĩ é¢ĺ
ç§ĳ å¹»
å®Ŀ èĹı
Ġattend ing
æł ½
å¸Ĥ æ°ĳ
vers e
Ġs ad
æĺ Ĩ
æĪĳ è§īå¾Ĺ
ĠM ental
æ¢ ¯
æīĭ å·¥
Ġequ al
çļĦç©º æ°Ķ
èĻļæĭŁ çİ°å®ŀ
èı ²
Ġcomput ers
s m
æľĢ ä½İ
Ġrent al
çĶŁæ´» çļĦ
æĶ¯ æĴĳ
éĴ¢ çĲ´
ĠC at
Ġsh all
ĠU nd
Ġwarm ing
f rom
å¹¶ éĢļè¿ĩ
å²© çŁ³
åĨħ æ¶µ
æ¸¸æĪı çļĦ
çķªèĮĦ éħ±
Ġexplan ations
app end
Ġpres erving
åĲ¯ ç¤º
Ġrh yth
éľĢè¦ģ ä½¿çĶ¨
å±± èĦī
Ġrespect ful
æĪĳ å¸ĮæľĽ
æĦı å¤ĸ
Ġunf air
Ġcircum st
æľĪ ä»½
è¯Ħ å®ļ
ä¸ĢèĪ¬ æĿ¥è¯´
t ra
Ġc up
Ġp u
Ġalloc ate
Ġres on
ap es
Ġp hen
Ġal most
éĢļ ä¿¡
Ġup coming
é¥® çĶ¨
æ³¢ åĬ¨
Ġcheck ing
è¯ Ī
Ġclose ly
åħħè¶³ çļĦ
ap er
Ġwat ers
Ġchemical s
ä¸Ģ æľ¬
æĸ¹å¼ı åĴĮ
åĩºçİ° äºĨ
ä¼Ĺ å¤ļ
èŃ¦ å¯Ł
6 4
ç»Ļ äºº
Ġpict ures
Ġnot hing
Ġtravel ing
Ġfunct ional
è¯· æ±Ĥ
åĬŁ æķĪ
æĬ¤ çĲĨ
å®¢æĪ· æľįåĬ¡
Ġsal t
ar g
Ġe labor
ä¼ į
éĩı åĴĮ
çľĭ åĩº
Ã Ĺ
Ġ çĥ¤
ag o
è´Ł æĭħ
by e
çļĦæ¯Ķ ä¾ĭ
èĢĮ ä¸į
Ġnot able
æ´Ĺ åĩĢ
olog ists
ĠMus ic
ĠI ce
åĩº åıĳ
Ġtest ed
åĿļ å®ļ
Ġdiv ide
Ġdow ns
ä½ıå® ¿
B M
Ġd ro
Ġdat ab
ä¹Ł èĥ½
çĽ¸ å½ĵ
åħ¨ éĥ¨
M oreover
è®¸å¤ļ äºº
Ġreal ize
çªĹ æĪ·
çļĦçģ µ
åĸĤ åħ»
è¿Ļ ä»½
ĠS af
è¾ ©
Ġra ising
ä¾Ŀ æį®
Ġphotos ynthesis
3 7
çĶŁçī© åŃ¦
å±ķ è§Ī
éĽĨ åĲĪ
éĵ ľ
èĽ ĩ
Ġcontribut ing
ĠDes ign
åĴĮ ç»ıéªĮ
ä¸¤ äººçļĦ
Ġinf l
Ġhy p
b an
æĪĳ çĽ¸ä¿¡
Ġhealth ier
è¢ ĸ
çļĦäºº çĶŁ
è´¢åĬ¡ çĬ¶åĨµ
æ¸© å®¤æ°Ķä½ĵ
è¿Ļ å®¶
ĠCan yon
åı¶ åŃĲ
å¢Ļ å£ģ
Ġoccur s
åĬ³ åĬ¨
Ġfunct ions
æľī çĤ¹
Ġposs ess
Ġenjoy ed
--- |
Ġb ond
å¿ĥ èĦı
éĽ ¾
9 5
Ġin ner
Ġf alse
Ġb ad
åħ¬ çĽĬ
Ġfu els
æĺİçĻ½ äºĨ
çļĦéľĢæ±Ĥ åĴĮ
i ences
Ġ ï¼Ī
å¤ļ å½©
ĠL ove
å¹³æĸ¹ ç±³
è¿Ļ æľīåĬ©äºİ
èĢ Ģ
å·²ç»ı æĪĲä¸º
ĠVis it
å¤ ®
æ°´ çļĦ
æł· çļĦ
Ġp ic
Ġment ors
Ġgreat ly
å½Ĵ çº³
ĠFr an
è¿Ľ èĢĮ
èĥ ĥ
Ġvac ation
Ġmargin alized
è·Ł è¸ª
Ġsurve illance
Ġsus p
ĠAustr alia
æĤ¨ åľ¨
èº« è¾¹
éħį å¤ĩ
pre dict
Ġentire ly
ä¸Ń æľī
Ġgard ens
åĩĨç¡® æĢ§
ograph ic
Ġsocio economic
Ġdiscuss ion
åī§ æĥħ
å¾ ¡
æŃ¤ æĹ¶
Ġplan ets
èĬ± æľµ
c ific
é¢Ħ æĬ¥
æĻļ é¤Ĳ
è°¨ æħİ
æ·±åĪ» çļĦ
çļĦæĿ¡ ä»¶
et ime
Ġinter f
ph ones
èĦ Ĭ
Ġbr ings
Ġremind er
Ġdiscuss ing
G o
çĤ¹ åĴĮ
ĠL ife
us es
ce l
çļĦæĶ¶ åħ¥
Ġs on
æľĢ éĢĤåĲĪ
ç²¾ ç¡®
ĠEx plain
Ġvac c
i pe
Ġwell being
çŃĸ åĪĴ
äºİ æĺ¯
äºº åĴĮ
Ġcons erve
ç³»ç»Ł çļĦ
åĩĨç¡® åľ°
Ġreput ation
Ġf ine
å¯¹ åħ¶
Ġlocal ly
å±ķçİ° äºĨ
Ġst ock
åħ³äºİ å¦Ĥä½ķ
å¹¿æ³Ľ çļĦ
Ġqu otes
çļĦéĩįè¦ģ ç»ĦæĪĲéĥ¨åĪĨ
åı¯ åı£
åĬł å·¥
åĨ¬ åŃ£
Ġ åħ¶ä»ĸ
åĲĪ æĪĲ
Ġro cks
Ġwild f
ĠRed uce
Ġcelebr ate
ur ation
cess ing
ĠIs land
åĩº çļĦ
é«ĺ æ¸©
Ġint u
åĲİ æŀľ
æİ¥ æĶ¶
Ġmanufact ure
ĠL ist
O N
ĠE ven
åİŁ åĳĬ
çļĦçģ ¯
å° ĸ
å°½ åĬĽ
çļĦæĦŁ æĥħ
æĹ© ä¸Ĭ
Ġbroad er
ĠSim ilarly
ud es
æĪĲ ç«ĭ
Ġbal anced
Ġcock tail
ı è§Ī
er a
Ġd ura
Ġn ur
Ġthan ks
Ġreport ed
Ġintric ate
åĲ¬ åĪ°
ĠAcc ount
Ġhosp ital
åįı åķĨ
ã Ĥ
åŃ ķ
æĪĳä»¬ å¿ħé¡»
æıĲ äº¤
æ´» åĬĽ
æıĲä¾Ľ ä¸Ģä»½
h and
æ·± åĳ¼åĲ¸
Ġcooper ation
ĠB efore
æ¯ı æľĪ
ĠCh ild
Ġhighlight ing
Ġentreprene urs
} ,
Ġund erst
æµ· é²ľ
äº¤éĢļ æĭ¥åłµ
èģļ ä¼ļ
ä¸ĵæ³¨ äºİ
çļĦæ³¨ æĦı
Ġb es
Ġcap ital
å¼¯ æĽ²
æĸ ĳ
å¥½ å¤Ħ
Ġencoura ged
çļĦæ¯ı ä¸ª
åħīåĲĪ ä½ľçĶ¨
éĥ½ åľ¨
employ ment
çĶŁ çĲĨ
Ġbring ing
çļĦ çĶµå½±
èĸ ¯
is her
Ġint ense
èıľ è°±
Ġestablish ing
ĠFest ival
æ¡ ĥ
çļĦçŁ Ń
å²Ĺ ä½į
Ġm ap
å¸Ĥåľº èĲ¥éĶĢ
æŀĹ é»Ľçİī
åľ¨è¿Ļç§į æĥħåĨµä¸ĭ
G PT
Ġris ing
Ġsun light
E N
g ic
çļĦç ¡
è£ħé¥° åĵģ
äºĳ è®¡ç®Ĺ
ĠCO VID
ç»© æķĪ
è½® èĥİ
é¢Ĩå¯¼ èĢħ
d own
åĪĨåĪ« ä¸º
çĽ¸ä¼¼ åº¦
Ġanom al
çĥ ¦
æ³¨ åĨĮ
åŃĹ ä½ĵ
çħ§ æĺİ
å¸¦æĿ¥ çļĦ
çĶ² æĸ¹
Ġth ous
ra w
Ġg ives
åıª éľĢè¦ģ
æİ¢ ç©¶
Ġs ell
ä¸º æĪĳä»¬
æĭ Ĩ
med icine
åľ¨ è¿Ľè¡Į
äº§ æĿĥ
çĥ Ĥ
æ´ ª
ä»İ ä¸Ń
å¹ ½
å®ĥ åľ¨
æĸĩç«ł ä¸Ń
ä»¥ æŃ¤
bo x
Ġcall s
æī İ
Ġgen res
Ġdiscuss ions
Ġalign s
åķĨ å®¶
ĠT raining
ĠR ef
åĮ» éĻ¢
Ġt urb
ä½ł å¯¹
Ġcou nter
Ġresil ient
æĳĺ è¦ģ
âĢĭ âĢĭ
åįĹ æŀģ
ĠVal ley
æĹ ģ
ä¼ĺ éĽħ
Ġviol ence
Ġdynam ic
Ġast ron
äººä»¬ å¯¹
æķĻ å¸Ī
Ġs old
ĠD i
ç®Ģ è¦ģ
è·¯ ä¸Ĭ
ĠAnaly tics
Ġsupport s
Ġsay ing
Ġcompon ent
9 8
Ġh ttps
æŃ¥ è¡Į
æ® ĭ
åı£ ç¢ĳ
çĶµåŃĲ åķĨåĬ¡
on ym
Ġh ik
Ġdec ided
Ġpass eng
åĹ ¯
er ate
ĠO cean
ve red
ol f
éĹ °
Ġ æķ°æį®
åĲ ¹
Ġde grad
æĤ¨ å¥½
Ġpay ment
G iven
çĽ¸ åĬł
éĴ »
Ġhy dr
èĿ ¶
çļĦç Ļ
Ġbutter f
Ġto mat
èĤ¯ å®ļ
c ers
Ġg alax
çª ĥ
Ġland marks
èħ ¹
Ġcircumst ances
Ġp ray
Ġb ags
åľ¨ ä¸įåĲĮ
ä¿¡ å¿ĥ
Ġout line
ä¼ł è¾ĵ
åĩ ¡
åıĳ è¡¨
g ers
åħ µ
éĥ¨ ä»¶
å½¢æĪĲ çļĦ
çļĦçĭ Ĺ
è¿Ļ ä½¿å¾Ĺ
å½ĵ ä»Ĭ
Ġrem o
èĮ¶ åĮĻ
b ody
ld er
åĵį åºĶ
åŀĥåľ¾ åĪĨç±»
äºº åĬĽ
Ġexp enses
ym e
Ġ9 0
è¿ Ń
æĸĩ èīº
Ġpo et
æĹ¶éĹ´ åĨħ
Ġwee ke
ĠA P
é«ĺ çº§
ĠV e
æµ· æ»©
Ġbe es
è¿Ļ æľ¬ä¹¦
ä¸ĭ ä¸Ģä¸ª
Ġrepresent atives
çºł çº·
ort hern
Ġrep ro
Ġless on
çļĦæ²» çĸĹ
i pping
Ġp izza
åĴĮ ä¸ªäºº
å¤ ¹
æııè¿° ä¸Ģä¸ª
Ġmill ions
é² ģ
Ġmiss ed
Ġp ages
ä¸¤ äºº
åħį è´¹
Ġant icip
åħįçĸ« åĬĽ
ĠPe ople
O R
Ġrel atively
çģ« è½¦
t hen
Ġadopt ing
ĠAng el
æĪĳä»¬ åħ¬åı¸
èĻ İ
Ġfraud ulent
Ġg all
ĠC y
ĠPl ay
Ġgra ding
is a
ĠC ult
è¾ ¨
æ°´ åĮĸåĲĪçī©
æııè¿° ä¸Ģä¸ĭ
ä¸į éĢĤ
Ġcomple ted
Ġstore d
ä¼ł è¯´
Ġfl ight
ĠInc orpor
ri e
åŁİå¸Ĥ è§ĦåĪĴ
æ¯« åįĩ
r ig
åħ¶ä»ĸ äºº
Ġcollect ive
æŃ£ å¼ı
ä»¥ä¸ĭæĺ¯ä¸Ģ æ®µ
ĠHaw ai
w ise
ä¸»è¦ģ æĺ¯
Ġfacil itate
Ġh our
ĠT ime
Ġwee ks
es us
Ġarg ue
Ġ çĶ¨
Ġevol ving
am ic
Ġwor ry
ä¸ĢçĽ´ åľ¨
Ġele ph
åĬĽ åº¦
Ġpass ed
åĲ¯ åĬ¨
Ġb ot
ä¿¡æģ¯ åĴĮ
ĠCommun ity
Ġe arn
Ġn uc
ä»½ é¢Ŀ
åĩł ç§į
èħ Ĭ
v ant
ul pt
Ġcollect ing
æģĲ é¾Ļ
çļĦ çī¹å¾ģ
ĠM oreover
ä¹Ĳ åĻ¨
ever ance
Ġstory telling
eff ective
ä»¥ä¸ĭåĩł çĤ¹
Ġath let
ĠBrit ish
åĪĨ æķ£
ä¸¤ ä¸ªäºº
ab et
Ġsp oken
Ġ ä»¥ä¸ĭæĺ¯ä¸Ģä¸ª
çĶŁ åĬ¨çī©
åĪĽæĸ° åĴĮ
æī¹ è¯Ħ
æĿĲæĸĻ åĴĮ
çīĪ æľ¬
t rain
ĠE mot
å°ı äºİ
Ġbre aches
Ġgrow n
çģµ æĦŁ
æ³ Ĭ
Ġgu ess
Ġsee ing
æĴŃ æĶ¾
Ġadv erse
Ġdou ble
åıĹ åĪ°äºĨ
éĩĳ é»Ħèī²
Ġgain ed
è¡¥ åħħ
Ġcol on
ĠEncoura ging
ĠE lect
åħ¬ å¯ĵ
å¯Ĩ åĪĩ
æıĲåĩº äºĨ
è¯ ¸
åĪ¶ä½ľ ä¸Ģä»½
